float x_factor = 6.282957376958533;
float y_factor = 1.2424448029922295;
unsigned char sine_model[] = {
 0x1c, 0x00, 0x00, 0x00, 0x54, 0x46, 0x4c, 0x33, 0x14, 0x00, 0x20, 0x00,
  0x04, 0x00, 0x08, 0x00, 0x0c, 0x00, 0x10, 0x00, 0x14, 0x00, 0x00, 0x00,
  0x18, 0x00, 0x1c, 0x00, 0x14, 0x00, 0x00, 0x00, 0x03, 0x00, 0x00, 0x00,
  0x18, 0x00, 0x00, 0x00, 0x1c, 0x00, 0x00, 0x00, 0xa8, 0x00, 0x00, 0x00,
  0x1c, 0x00, 0x00, 0x00, 0x50, 0x00, 0x00, 0x00, 0x48, 0x00, 0x00, 0x00,
  0x01, 0x00, 0x00, 0x00, 0xcc, 0x02, 0x00, 0x00, 0x01, 0x00, 0x00, 0x00,
  0xb0, 0x00, 0x00, 0x00, 0x0c, 0x00, 0x00, 0x00, 0x14, 0x0b, 0x00, 0x00,
  0x10, 0x0b, 0x00, 0x00, 0x30, 0x0a, 0x00, 0x00, 0x78, 0x09, 0x00, 0x00,
  0xcc, 0x08, 0x00, 0x00, 0x34, 0x08, 0x00, 0x00, 0xdc, 0x03, 0x00, 0x00,
  0x44, 0x03, 0x00, 0x00, 0xf4, 0x0a, 0x00, 0x00, 0xf0, 0x0a, 0x00, 0x00,
  0xec, 0x0a, 0x00, 0x00, 0x3c, 0x00, 0x00, 0x00, 0x00, 0x00, 0x00, 0x00,
  0x01, 0x00, 0x00, 0x00, 0x0c, 0x00, 0x00, 0x00, 0x08, 0x00, 0x0c, 0x00,
  0x04, 0x00, 0x08, 0x00, 0x08, 0x00, 0x00, 0x00, 0x08, 0x00, 0x00, 0x00,
  0x0b, 0x00, 0x00, 0x00, 0x13, 0x00, 0x00, 0x00, 0x6d, 0x69, 0x6e, 0x5f,
  0x72, 0x75, 0x6e, 0x74, 0x69, 0x6d, 0x65, 0x5f, 0x76, 0x65, 0x72, 0x73,
  0x69, 0x6f, 0x6e, 0x00, 0x36, 0xf6, 0xff, 0xff, 0x04, 0x00, 0x00, 0x00,
  0x10, 0x00, 0x00, 0x00, 0x31, 0x2e, 0x35, 0x2e, 0x30, 0x00, 0x00, 0x00,
  0x00, 0x00, 0x00, 0x00, 0x00, 0x00, 0x00, 0x00, 0x0f, 0x00, 0x00, 0x00,
  0x4d, 0x4c, 0x49, 0x52, 0x20, 0x43, 0x6f, 0x6e, 0x76, 0x65, 0x72, 0x74,
  0x65, 0x64, 0x2e, 0x00, 0x00, 0x00, 0x0e, 0x00, 0x18, 0x00, 0x04, 0x00,
  0x08, 0x00, 0x0c, 0x00, 0x10, 0x00, 0x14, 0x00, 0x0e, 0x00, 0x00, 0x00,
  0x14, 0x00, 0x00, 0x00, 0x3c, 0x00, 0x00, 0x00, 0x40, 0x00, 0x00, 0x00,
  0x44, 0x00, 0x00, 0x00, 0x50, 0x00, 0x00, 0x00, 0x0a, 0x00, 0x00, 0x00,
  0x04, 0x0a, 0x00, 0x00, 0x90, 0x09, 0x00, 0x00, 0x04, 0x09, 0x00, 0x00,
  0x58, 0x08, 0x00, 0x00, 0xc0, 0x07, 0x00, 0x00, 0x28, 0x07, 0x00, 0x00,
  0xd0, 0x02, 0x00, 0x00, 0xec, 0x01, 0x00, 0x00, 0xec, 0x00, 0x00, 0x00,
  0x60, 0x00, 0x00, 0x00, 0x01, 0x00, 0x00, 0x00, 0x00, 0x00, 0x00, 0x00,
  0x01, 0x00, 0x00, 0x00, 0x09, 0x00, 0x00, 0x00, 0x03, 0x00, 0x00, 0x00,
  0x74, 0x01, 0x00, 0x00, 0x98, 0x00, 0x00, 0x00, 0x10, 0x00, 0x00, 0x00,
  0x04, 0x00, 0x00, 0x00, 0x6d, 0x61, 0x69, 0x6e, 0x00, 0x00, 0x00, 0x00,
  0x8a, 0xff, 0xff, 0xff, 0x00, 0x00, 0x00, 0x08, 0x18, 0x00, 0x00, 0x00,
  0x0c, 0x00, 0x00, 0x00, 0x04, 0x00, 0x00, 0x00, 0x1c, 0xf6, 0xff, 0xff,
  0x01, 0x00, 0x00, 0x00, 0x09, 0x00, 0x00, 0x00, 0x03, 0x00, 0x00, 0x00,
  0x08, 0x00, 0x00, 0x00, 0x06, 0x00, 0x00, 0x00, 0x01, 0x00, 0x00, 0x00,
  0x94, 0xf6, 0xff, 0xff, 0x14, 0x00, 0x00, 0x00, 0x0a, 0x00, 0x00, 0x00,
  0x24, 0x00, 0x00, 0x00, 0x30, 0x00, 0x00, 0x00, 0x10, 0x00, 0x00, 0x00,
  0x02, 0x00, 0x00, 0x00, 0x01, 0x00, 0x00, 0x00, 0x01, 0x00, 0x00, 0x00,
  0x02, 0x00, 0x00, 0x00, 0xff, 0xff, 0xff, 0xff, 0x01, 0x00, 0x00, 0x00,
  0x08, 0x00, 0x00, 0x00, 0x49, 0x64, 0x65, 0x6e, 0x74, 0x69, 0x74, 0x79,
  0x00, 0x00, 0x00, 0x00, 0x60, 0xf7, 0xff, 0xff, 0x00, 0x00, 0x0e, 0x00,
  0x14, 0x00, 0x00, 0x00, 0x08, 0x00, 0x0c, 0x00, 0x07, 0x00, 0x10, 0x00,
  0x0e, 0x00, 0x00, 0x00, 0x00, 0x00, 0x00, 0x08, 0x1c, 0x00, 0x00, 0x00,
  0x10, 0x00, 0x00, 0x00, 0x04, 0x00, 0x00, 0x00, 0x26, 0xff, 0xff, 0xff,
  0x00, 0x00, 0x00, 0x01, 0x01, 0x00, 0x00, 0x00, 0x08, 0x00, 0x00, 0x00,
  0x03, 0x00, 0x00, 0x00, 0x07, 0x00, 0x00, 0x00, 0x05, 0x00, 0x00, 0x00,
  0x02, 0x00, 0x00, 0x00, 0x1c, 0xf7, 0xff, 0xff, 0x14, 0x00, 0x00, 0x00,
  0x09, 0x00, 0x00, 0x00, 0x24, 0x00, 0x00, 0x00, 0x80, 0x00, 0x00, 0x00,
  0x10, 0x00, 0x00, 0x00, 0x02, 0x00, 0x00, 0x00, 0x01, 0x00, 0x00, 0x00,
  0x10, 0x00, 0x00, 0x00, 0x02, 0x00, 0x00, 0x00, 0xff, 0xff, 0xff, 0xff,
  0x10, 0x00, 0x00, 0x00, 0x5b, 0x00, 0x00, 0x00, 0x73, 0x65, 0x71, 0x75,
  0x65, 0x6e, 0x74, 0x69, 0x61, 0x6c, 0x5f, 0x35, 0x36, 0x2f, 0x64, 0x65,
  0x6e, 0x73, 0x65, 0x5f, 0x31, 0x36, 0x39, 0x2f, 0x4d, 0x61, 0x74, 0x4d,
  0x75, 0x6c, 0x3b, 0x73, 0x65, 0x71, 0x75, 0x65, 0x6e, 0x74, 0x69, 0x61,
  0x6c, 0x5f, 0x35, 0x36, 0x2f, 0x64, 0x65, 0x6e, 0x73, 0x65, 0x5f, 0x31,
  0x36, 0x39, 0x2f, 0x52, 0x65, 0x6c, 0x75, 0x3b, 0x73, 0x65, 0x71, 0x75,
  0x65, 0x6e, 0x74, 0x69, 0x61, 0x6c, 0x5f, 0x35, 0x36, 0x2f, 0x64, 0x65,
  0x6e, 0x73, 0x65, 0x5f, 0x31, 0x36, 0x39, 0x2f, 0x42, 0x69, 0x61, 0x73,
  0x41, 0x64, 0x64, 0x00, 0x38, 0xf8, 0xff, 0xff, 0x00, 0x00, 0x0e, 0x00,
  0x16, 0x00, 0x00, 0x00, 0x08, 0x00, 0x0c, 0x00, 0x07, 0x00, 0x10, 0x00,
  0x0e, 0x00, 0x00, 0x00, 0x00, 0x00, 0x00, 0x08, 0x24, 0x00, 0x00, 0x00,
  0x18, 0x00, 0x00, 0x00, 0x0c, 0x00, 0x00, 0x00, 0x00, 0x00, 0x06, 0x00,
  0x08, 0x00, 0x07, 0x00, 0x06, 0x00, 0x00, 0x00, 0x00, 0x00, 0x00, 0x01,
  0x01, 0x00, 0x00, 0x00, 0x07, 0x00, 0x00, 0x00, 0x03, 0x00, 0x00, 0x00,
  0x00, 0x00, 0x00, 0x00, 0x04, 0x00, 0x00, 0x00, 0x03, 0x00, 0x00, 0x00,
  0x0c, 0x00, 0x10, 0x00, 0x0b, 0x00, 0x00, 0x00, 0x0c, 0x00, 0x04, 0x00,
  0x0c, 0x00, 0x00, 0x00, 0x09, 0x00, 0x00, 0x00, 0x00, 0x00, 0x00, 0x09,
  0x01, 0x00, 0x00, 0x00, 0x18, 0xf8, 0xff, 0xff, 0x14, 0x00, 0x00, 0x00,
  0x08, 0x00, 0x00, 0x00, 0x24, 0x00, 0x00, 0x00, 0x80, 0x00, 0x00, 0x00,
  0x10, 0x00, 0x00, 0x00, 0x02, 0x00, 0x00, 0x00, 0x01, 0x00, 0x00, 0x00,
  0x10, 0x00, 0x00, 0x00, 0x02, 0x00, 0x00, 0x00, 0xff, 0xff, 0xff, 0xff,
  0x10, 0x00, 0x00, 0x00, 0x5b, 0x00, 0x00, 0x00, 0x73, 0x65, 0x71, 0x75,
  0x65, 0x6e, 0x74, 0x69, 0x61, 0x6c, 0x5f, 0x35, 0x36, 0x2f, 0x64, 0x65,
  0x6e, 0x73, 0x65, 0x5f, 0x31, 0x36, 0x38, 0x2f, 0x4d, 0x61, 0x74, 0x4d,
  0x75, 0x6c, 0x3b, 0x73, 0x65, 0x71, 0x75, 0x65, 0x6e, 0x74, 0x69, 0x61,
  0x6c, 0x5f, 0x35, 0x36, 0x2f, 0x64, 0x65, 0x6e, 0x73, 0x65, 0x5f, 0x31,
  0x36, 0x38, 0x2f, 0x52, 0x65, 0x6c, 0x75, 0x3b, 0x73, 0x65, 0x71, 0x75,
  0x65, 0x6e, 0x74, 0x69, 0x61, 0x6c, 0x5f, 0x35, 0x36, 0x2f, 0x64, 0x65,
  0x6e, 0x73, 0x65, 0x5f, 0x31, 0x36, 0x38, 0x2f, 0x42, 0x69, 0x61, 0x73,
  0x41, 0x64, 0x64, 0x00, 0x4c, 0xf8, 0xff, 0xff, 0x2e, 0xf9, 0xff, 0xff,
  0x04, 0x00, 0x00, 0x00, 0x40, 0x00, 0x00, 0x00, 0xc9, 0x22, 0x93, 0x3f,
  0x38, 0x0d, 0xd4, 0xbd, 0x43, 0x66, 0x5d, 0xbe, 0x01, 0xeb, 0xc1, 0xbf,
  0x02, 0x06, 0x85, 0x3f, 0x33, 0x56, 0x7c, 0x3f, 0x6f, 0xcb, 0xc6, 0xbd,
  0x8c, 0x9b, 0x8c, 0x3f, 0xd9, 0x82, 0xfe, 0xbd, 0x2a, 0x07, 0x9b, 0x3f,
  0x12, 0xd3, 0x59, 0xbf, 0x01, 0x1c, 0x34, 0xbe, 0x9c, 0x7f, 0x6a, 0x3f,
  0xdd, 0xa0, 0xad, 0x3e, 0x9c, 0xa3, 0xbf, 0xbe, 0x80, 0xc7, 0x32, 0x3e,
  0x62, 0xf9, 0xff, 0xff, 0x10, 0x00, 0x00, 0x00, 0x07, 0x00, 0x00, 0x00,
  0x14, 0x00, 0x00, 0x00, 0x34, 0x00, 0x00, 0x00, 0x02, 0x00, 0x00, 0x00,
  0x01, 0x00, 0x00, 0x00, 0x10, 0x00, 0x00, 0x00, 0x1e, 0x00, 0x00, 0x00,
  0x73, 0x65, 0x71, 0x75, 0x65, 0x6e, 0x74, 0x69, 0x61, 0x6c, 0x5f, 0x35,
  0x36, 0x2f, 0x64, 0x65, 0x6e, 0x73, 0x65, 0x5f, 0x31, 0x37, 0x30, 0x2f,
  0x4d, 0x61, 0x74, 0x4d, 0x75, 0x6c, 0x00, 0x00, 0xe0, 0xf8, 0xff, 0xff,
  0xc2, 0xf9, 0xff, 0xff, 0x04, 0x00, 0x00, 0x00, 0x00, 0x04, 0x00, 0x00,
  0xac, 0xce, 0xa2, 0x3d, 0xab, 0x7a, 0x8d, 0x3e, 0x64, 0x66, 0xec, 0xbd,
  0x15, 0xa2, 0xf6, 0x3e, 0xb1, 0xb1, 0x65, 0xbf, 0xe7, 0x1f, 0x2c, 0xbf,
  0x10, 0x01, 0xd0, 0xbc, 0x5d, 0x5b, 0x25, 0xbf, 0xe6, 0xa7, 0x17, 0xbf,
  0x21, 0x3c, 0xe5, 0x3e, 0xaa, 0x02, 0x51, 0xbf, 0x56, 0xa1, 0x85, 0xbf,
  0x52, 0x5a, 0x6f, 0x3e, 0x7b, 0x81, 0x91, 0x3e, 0xf5, 0x42, 0xa7, 0x3e,
  0xb6, 0x52, 0x6d, 0xbe, 0x98, 0x23, 0x8f, 0xbd, 0xd4, 0x31, 0xa0, 0x3d,
  0xb8, 0x4c, 0x44, 0xbe, 0x00, 0x26, 0x5b, 0xbd, 0xfe, 0x18, 0x35, 0x3e,
  0xb3, 0xbc, 0xa3, 0x3e, 0x40, 0x0d, 0x69, 0xbd, 0xd8, 0x3e, 0x7b, 0x3d,
  0xfe, 0xe3, 0x6d, 0x3e, 0xb6, 0x63, 0xc4, 0xbe, 0xfe, 0x19, 0x3f, 0xbe,
  0x4e, 0x2e, 0x8c, 0xbe, 0xe9, 0x5d, 0xd5, 0x3e, 0x1e, 0x71, 0x68, 0x3e,
  0xb8, 0x08, 0x97, 0xbe, 0x25, 0x24, 0x6c, 0xbe, 0x1a, 0x17, 0x79, 0x3e,
  0x88, 0x69, 0x4f, 0xbe, 0x2f, 0xb1, 0xc3, 0x3e, 0xc1, 0x5a, 0xbf, 0xbd,
  0x45, 0xef, 0x78, 0xbe, 0x05, 0xba, 0x45, 0xbf, 0xac, 0x30, 0xb9, 0x3d,
  0xe1, 0x67, 0xdc, 0xbd, 0x20, 0xaa, 0xa4, 0xbe, 0x23, 0x90, 0xef, 0x3e,
  0x62, 0x16, 0x5f, 0x3e, 0x81, 0xd1, 0xa0, 0x3a, 0x00, 0x45, 0xd3, 0x3b,
  0x0e, 0x8d, 0x22, 0x3e, 0x7f, 0x18, 0xae, 0x3e, 0x40, 0x8d, 0x92, 0xbd,
  0x94, 0x2c, 0xf1, 0x3d, 0x8d, 0xdd, 0x70, 0xbe, 0xdc, 0x46, 0x9a, 0x3d,
  0x90, 0x94, 0x80, 0xbe, 0xf1, 0x63, 0xdd, 0xbe, 0xbd, 0xc5, 0xb0, 0x3e,
  0xe1, 0x4c, 0xcd, 0x3e, 0x4e, 0x6e, 0xb9, 0xbe, 0x83, 0xf2, 0xce, 0xbe,
  0x09, 0x3c, 0xef, 0xbf, 0xd5, 0xcc, 0x24, 0xbf, 0xca, 0x49, 0xcf, 0xbe,
  0xf8, 0xf2, 0x25, 0xbd, 0xfb, 0xd9, 0xd2, 0xbe, 0x0c, 0xa1, 0x65, 0xbe,
  0xd6, 0xec, 0x95, 0xbe, 0x94, 0xb6, 0xc2, 0x3d, 0xdd, 0x83, 0xa5, 0x3e,
  0x7e, 0xfc, 0x8d, 0xbe, 0x35, 0x41, 0xbc, 0x3e, 0x9e, 0x23, 0xd8, 0xbe,
  0x28, 0x70, 0x92, 0xbf, 0x41, 0x55, 0xae, 0x3e, 0xfe, 0xf7, 0x6e, 0xbf,
  0xa1, 0xb6, 0x8b, 0xbf, 0x44, 0x96, 0x01, 0x3f, 0x6c, 0xbe, 0x7b, 0xbf,
  0x64, 0xd2, 0x8e, 0xbf, 0xb6, 0xce, 0x5b, 0x3e, 0x84, 0xc8, 0xfd, 0x3d,
  0xb7, 0xb0, 0xac, 0x3e, 0x3c, 0x01, 0x38, 0xbe, 0xe4, 0xbf, 0xc7, 0xbe,
  0xa4, 0x39, 0xe4, 0xbd, 0x1c, 0x5a, 0xc6, 0x3d, 0xb6, 0x86, 0x6d, 0x3e,
  0x33, 0x1b, 0x53, 0x3f, 0xc7, 0x74, 0x07, 0x3e, 0x98, 0x87, 0x48, 0xbd,
  0x38, 0x47, 0x3f, 0x3d, 0x68, 0x23, 0x6e, 0x3e, 0x92, 0x87, 0x7f, 0x3e,
  0xfe, 0xf6, 0xf9, 0xbd, 0x5e, 0x82, 0xb0, 0x3e, 0xb2, 0x76, 0x03, 0x3e,
  0xfd, 0xba, 0xd3, 0x3e, 0x12, 0x83, 0x30, 0x3e, 0xb8, 0xf8, 0x25, 0x3d,
  0x7e, 0xd1, 0x9b, 0xbe, 0xea, 0x5e, 0x4a, 0x3e, 0xc5, 0xfe, 0xd1, 0x3e,
  0x1c, 0xf3, 0x9a, 0x3e, 0x92, 0x94, 0x22, 0xbf, 0x1f, 0x17, 0x51, 0x3d,
  0xcf, 0xc8, 0xc4, 0x3e, 0xaa, 0xdb, 0x19, 0xbd, 0xb0, 0x90, 0xf2, 0x3d,
  0x58, 0xff, 0x51, 0x3e, 0x45, 0xe3, 0x6a, 0xbe, 0x70, 0xaa, 0x1a, 0x3d,
  0x7e, 0x88, 0xbd, 0xbe, 0xb9, 0x85, 0x74, 0xbe, 0xc4, 0xca, 0x3c, 0xbe,
  0xee, 0x90, 0x3f, 0x3e, 0x26, 0x7b, 0x76, 0x3e, 0xac, 0xf1, 0x16, 0xbe,
  0x23, 0x32, 0xa9, 0xbe, 0x7f, 0x49, 0xe1, 0x3e, 0x4b, 0x7a, 0x6c, 0xbf,
  0xb3, 0xe0, 0x1b, 0xbf, 0x5c, 0xa7, 0xbf, 0x3d, 0x2d, 0xa4, 0xdf, 0xbe,
  0xc7, 0x1f, 0x4a, 0xbf, 0xf8, 0x44, 0x9c, 0x3d, 0xa4, 0x44, 0x3f, 0xbf,
  0xc8, 0xfd, 0x38, 0xbf, 0xe5, 0x38, 0x8d, 0x3e, 0xf3, 0x24, 0xc4, 0x3e,
  0x85, 0x4f, 0x9f, 0x3e, 0x67, 0x52, 0x44, 0xbe, 0xca, 0xda, 0x25, 0x3e,
  0xb3, 0x22, 0xac, 0x3e, 0xd8, 0x47, 0x10, 0xbe, 0xe9, 0x98, 0xdf, 0x3d,
  0x3e, 0xba, 0xac, 0xbd, 0xb5, 0x8d, 0x87, 0xbe, 0x23, 0x4c, 0xb7, 0xbe,
  0xda, 0xb0, 0x88, 0x3e, 0x0f, 0x43, 0xb5, 0x3d, 0x3c, 0x1a, 0x27, 0x3e,
  0x6f, 0xe4, 0x68, 0x3e, 0x3f, 0x64, 0x91, 0xbe, 0xf4, 0x06, 0xc7, 0xbe,
  0x9e, 0x00, 0x6e, 0x3e, 0xf2, 0x5b, 0x4c, 0x3e, 0xe6, 0xe8, 0x65, 0x3e,
  0x1b, 0xc0, 0xb8, 0x3e, 0x00, 0x9e, 0x1d, 0x3a, 0x18, 0x0d, 0xa1, 0xbd,
  0xa7, 0x51, 0xcd, 0xbd, 0x81, 0x9a, 0x94, 0x3f, 0xd1, 0xed, 0xd8, 0x3e,
  0x15, 0xa8, 0xc6, 0x3e, 0xc0, 0xd8, 0x8e, 0x3d, 0x26, 0x52, 0x18, 0x3f,
  0x77, 0xfa, 0x6e, 0x3e, 0x2e, 0x3b, 0xdc, 0x3e, 0x86, 0x6c, 0x78, 0x3e,
  0xe0, 0xa0, 0x51, 0x3d, 0x6a, 0x55, 0x12, 0xbe, 0x81, 0xf9, 0xbf, 0x3e,
  0x83, 0x71, 0x95, 0x3e, 0x9c, 0xcd, 0xf1, 0x3d, 0xde, 0xbb, 0x00, 0x3e,
  0xd9, 0x48, 0x98, 0x3e, 0x3b, 0x0b, 0x49, 0xbe, 0xb8, 0x35, 0x89, 0xbf,
  0x5c, 0xd9, 0x69, 0xbe, 0x0c, 0x0b, 0xb6, 0xbe, 0x09, 0xa8, 0x35, 0x3e,
  0xdd, 0xc9, 0xef, 0xbe, 0xbb, 0x00, 0x23, 0x3e, 0x6d, 0xb2, 0x86, 0x3d,
  0x44, 0xaa, 0x0d, 0xbc, 0x24, 0xd8, 0xd1, 0x3d, 0xb5, 0xc0, 0x80, 0x3e,
  0xea, 0xeb, 0x19, 0xbe, 0xc4, 0xca, 0x93, 0x3d, 0xc0, 0x09, 0x50, 0x3d,
  0x1b, 0x92, 0x97, 0x3e, 0x30, 0x62, 0x3f, 0x3d, 0x80, 0x24, 0x6b, 0x3e,
  0xcd, 0x86, 0xc6, 0xbd, 0x1c, 0x7b, 0x24, 0xbf, 0xd6, 0x32, 0xc7, 0xbe,
  0x65, 0x4b, 0x88, 0x3e, 0xdb, 0x75, 0xcd, 0x3d, 0xf1, 0x4e, 0x80, 0x3e,
  0x89, 0x74, 0xc8, 0xbe, 0x3b, 0xde, 0xa7, 0xbd, 0x84, 0xf5, 0x03, 0xbe,
  0xd8, 0x22, 0xef, 0xbd, 0x10, 0xc2, 0xf3, 0xbd, 0x8c, 0x35, 0x83, 0x3d,
  0x0b, 0x4e, 0xb6, 0x3e, 0xbd, 0xce, 0xcf, 0x3e, 0x51, 0x42, 0x8e, 0x3e,
  0x2a, 0x15, 0x11, 0x3f, 0x3c, 0x34, 0x4c, 0xbf, 0xde, 0x0a, 0x81, 0xbf,
  0x14, 0xdb, 0xe8, 0xbd, 0xcf, 0xb1, 0x43, 0xbf, 0x02, 0x64, 0x02, 0xbf,
  0x33, 0x15, 0x85, 0xbe, 0xab, 0x22, 0xc2, 0xbe, 0x85, 0x37, 0x6f, 0xbf,
  0xf2, 0x44, 0x4f, 0x3e, 0x33, 0xee, 0x9f, 0x3e, 0xa0, 0xb9, 0xb1, 0xbd,
  0x60, 0x05, 0xf9, 0xbd, 0xe8, 0x6a, 0x0b, 0xbe, 0x88, 0xc9, 0x27, 0xbe,
  0x98, 0xfc, 0x92, 0xbd, 0xd5, 0x0d, 0xa6, 0x3e, 0x53, 0x40, 0xc7, 0x3e,
  0x3c, 0x22, 0xfc, 0x3e, 0x1a, 0xd4, 0x56, 0x3e, 0xd0, 0xaf, 0x1f, 0x3c,
  0xf7, 0x34, 0xa4, 0x3d, 0x5e, 0x06, 0xc2, 0x3e, 0xb2, 0xcc, 0xce, 0x3e,
  0x4e, 0x31, 0x76, 0xba, 0xeb, 0x99, 0xc9, 0xbe, 0xc0, 0x56, 0x86, 0x3b,
  0x98, 0xd1, 0x74, 0x3d, 0x78, 0x5a, 0x83, 0xbe, 0xe2, 0x00, 0x0a, 0x3e,
  0x6c, 0x9c, 0xd3, 0x3d, 0x15, 0xa8, 0xd3, 0xbe, 0x8a, 0xaf, 0xc3, 0x3e,
  0x7b, 0x9b, 0x93, 0xbe, 0x90, 0x43, 0x6d, 0xbe, 0x71, 0x8b, 0x3f, 0xbe,
  0xc5, 0x96, 0x19, 0x3b, 0xa4, 0x02, 0x81, 0xbe, 0x4f, 0x9c, 0x95, 0x3e,
  0x69, 0x12, 0x88, 0x3c, 0xa3, 0x9b, 0x21, 0x3e, 0xe4, 0x3b, 0xd1, 0xbd,
  0xa0, 0xef, 0x65, 0x3d, 0x76, 0xb2, 0x35, 0x3e, 0x7a, 0xbc, 0x05, 0xbe,
  0xc0, 0xda, 0x5f, 0x3d, 0x92, 0x11, 0x2f, 0x3e, 0x4e, 0x0a, 0x7e, 0x3e,
  0x30, 0x47, 0x99, 0xbc, 0x06, 0x20, 0xac, 0xbe, 0xb0, 0xa1, 0x81, 0xbc,
  0x18, 0xa9, 0x30, 0xbe, 0x69, 0x34, 0xd5, 0xbe, 0xa0, 0xc9, 0x05, 0xbc,
  0xaa, 0x9d, 0xd6, 0xbe, 0x20, 0xe7, 0x0f, 0xbe, 0x1d, 0xfd, 0x9f, 0xbe,
  0xae, 0x3c, 0x12, 0xbe, 0xee, 0x53, 0x4d, 0x3e, 0xdc, 0x9e, 0x9c, 0x3d,
  0x9e, 0xd1, 0x58, 0x3e, 0xb6, 0xfd, 0xff, 0xff, 0x10, 0x00, 0x00, 0x00,
  0x06, 0x00, 0x00, 0x00, 0x14, 0x00, 0x00, 0x00, 0x34, 0x00, 0x00, 0x00,
  0x02, 0x00, 0x00, 0x00, 0x10, 0x00, 0x00, 0x00, 0x10, 0x00, 0x00, 0x00,
  0x1e, 0x00, 0x00, 0x00, 0x73, 0x65, 0x71, 0x75, 0x65, 0x6e, 0x74, 0x69,
  0x61, 0x6c, 0x5f, 0x35, 0x36, 0x2f, 0x64, 0x65, 0x6e, 0x73, 0x65, 0x5f,
  0x31, 0x36, 0x39, 0x2f, 0x4d, 0x61, 0x74, 0x4d, 0x75, 0x6c, 0x00, 0x00,
  0x34, 0xfd, 0xff, 0xff, 0x16, 0xfe, 0xff, 0xff, 0x04, 0x00, 0x00, 0x00,
  0x40, 0x00, 0x00, 0x00, 0x14, 0x9f, 0x01, 0xbf, 0x57, 0xb0, 0x14, 0xbf,
  0x74, 0xf1, 0x6f, 0xbe, 0x71, 0x46, 0x2f, 0x3f, 0x05, 0xd3, 0x1d, 0x3f,
  0x32, 0x33, 0xb8, 0x3e, 0xb0, 0xe4, 0x47, 0xbd, 0xed, 0x73, 0x18, 0x3f,
  0x4a, 0x12, 0x88, 0x3e, 0xa7, 0x4e, 0x67, 0x3f, 0x80, 0x16, 0x2d, 0x3f,
  0xb4, 0x87, 0xc6, 0x3e, 0x64, 0x35, 0x72, 0xbe, 0xff, 0x98, 0x93, 0xbe,
  0xe1, 0x81, 0x17, 0xbf, 0xfa, 0xc5, 0xee, 0xbe, 0x4a, 0xfe, 0xff, 0xff,
  0x10, 0x00, 0x00, 0x00, 0x05, 0x00, 0x00, 0x00, 0x14, 0x00, 0x00, 0x00,
  0x34, 0x00, 0x00, 0x00, 0x02, 0x00, 0x00, 0x00, 0x10, 0x00, 0x00, 0x00,
  0x01, 0x00, 0x00, 0x00, 0x1e, 0x00, 0x00, 0x00, 0x73, 0x65, 0x71, 0x75,
  0x65, 0x6e, 0x74, 0x69, 0x61, 0x6c, 0x5f, 0x35, 0x36, 0x2f, 0x64, 0x65,
  0x6e, 0x73, 0x65, 0x5f, 0x31, 0x36, 0x38, 0x2f, 0x4d, 0x61, 0x74, 0x4d,
  0x75, 0x6c, 0x00, 0x00, 0xc8, 0xfd, 0xff, 0xff, 0xaa, 0xfe, 0xff, 0xff,
  0x04, 0x00, 0x00, 0x00, 0x40, 0x00, 0x00, 0x00, 0x00, 0x00, 0x00, 0x00,
  0x00, 0x00, 0x00, 0x00, 0x00, 0x00, 0x00, 0x00, 0x74, 0x90, 0xbb, 0x3d,
  0x28, 0xd2, 0xdc, 0xbe, 0xe7, 0x15, 0x23, 0xbe, 0x00, 0x00, 0x00, 0x00,
  0x06, 0x14, 0x19, 0xbe, 0x20, 0xcd, 0xf1, 0xbd, 0xa0, 0x98, 0x91, 0x3b,
  0x73, 0x7b, 0x43, 0xbe, 0x76, 0xbf, 0x02, 0xbe, 0x00, 0x00, 0x00, 0x00,
  0x00, 0x00, 0x00, 0x00, 0x00, 0x00, 0x00, 0x00, 0x00, 0x00, 0x00, 0x00,
  0xde, 0xfe, 0xff, 0xff, 0x10, 0x00, 0x00, 0x00, 0x04, 0x00, 0x00, 0x00,
  0x10, 0x00, 0x00, 0x00, 0x48, 0x00, 0x00, 0x00, 0x01, 0x00, 0x00, 0x00,
  0x10, 0x00, 0x00, 0x00, 0x37, 0x00, 0x00, 0x00, 0x73, 0x65, 0x71, 0x75,
  0x65, 0x6e, 0x74, 0x69, 0x61, 0x6c, 0x5f, 0x35, 0x36, 0x2f, 0x64, 0x65,
  0x6e, 0x73, 0x65, 0x5f, 0x31, 0x36, 0x38, 0x2f, 0x42, 0x69, 0x61, 0x73,
  0x41, 0x64, 0x64, 0x2f, 0x52, 0x65, 0x61, 0x64, 0x56, 0x61, 0x72, 0x69,
  0x61, 0x62, 0x6c, 0x65, 0x4f, 0x70, 0x2f, 0x72, 0x65, 0x73, 0x6f, 0x75,
  0x72, 0x63, 0x65, 0x00, 0x70, 0xfe, 0xff, 0xff, 0x52, 0xff, 0xff, 0xff,
  0x04, 0x00, 0x00, 0x00, 0x40, 0x00, 0x00, 0x00, 0x89, 0xd6, 0x7b, 0x3e,
  0x00, 0x00, 0x00, 0x00, 0x16, 0x62, 0x03, 0x3e, 0xf6, 0xe0, 0x92, 0x3e,
  0xb5, 0x56, 0x79, 0x3e, 0x89, 0x08, 0xa0, 0xbe, 0x8f, 0xac, 0x3d, 0x3d,
  0x31, 0x3a, 0x9c, 0x3e, 0xb9, 0x8c, 0xef, 0x3d, 0x83, 0x4a, 0x11, 0xbf,
  0x55, 0x97, 0xfa, 0x3e, 0xd3, 0x64, 0xbb, 0x3d, 0xd5, 0xb6, 0x7f, 0x3e,
  0xf7, 0x75, 0x72, 0xbe, 0xf5, 0xc6, 0x9a, 0x3d, 0x00, 0x00, 0x00, 0x00,
  0x86, 0xff, 0xff, 0xff, 0x10, 0x00, 0x00, 0x00, 0x03, 0x00, 0x00, 0x00,
  0x10, 0x00, 0x00, 0x00, 0x4c, 0x00, 0x00, 0x00, 0x01, 0x00, 0x00, 0x00,
  0x10, 0x00, 0x00, 0x00, 0x37, 0x00, 0x00, 0x00, 0x73, 0x65, 0x71, 0x75,
  0x65, 0x6e, 0x74, 0x69, 0x61, 0x6c, 0x5f, 0x35, 0x36, 0x2f, 0x64, 0x65,
  0x6e, 0x73, 0x65, 0x5f, 0x31, 0x36, 0x39, 0x2f, 0x42, 0x69, 0x61, 0x73,
  0x41, 0x64, 0x64, 0x2f, 0x52, 0x65, 0x61, 0x64, 0x56, 0x61, 0x72, 0x69,
  0x61, 0x62, 0x6c, 0x65, 0x4f, 0x70, 0x2f, 0x72, 0x65, 0x73, 0x6f, 0x75,
  0x72, 0x63, 0x65, 0x00, 0x04, 0x00, 0x06, 0x00, 0x04, 0x00, 0x00, 0x00,
  0x00, 0x00, 0x06, 0x00, 0x08, 0x00, 0x04, 0x00, 0x06, 0x00, 0x00, 0x00,
  0x04, 0x00, 0x00, 0x00, 0x04, 0x00, 0x00, 0x00, 0x3d, 0x25, 0xb3, 0xbe,
  0x00, 0x00, 0x0e, 0x00, 0x14, 0x00, 0x04, 0x00, 0x00, 0x00, 0x08, 0x00,
  0x0c, 0x00, 0x10, 0x00, 0x0e, 0x00, 0x00, 0x00, 0x10, 0x00, 0x00, 0x00,
  0x02, 0x00, 0x00, 0x00, 0x10, 0x00, 0x00, 0x00, 0x48, 0x00, 0x00, 0x00,
  0x01, 0x00, 0x00, 0x00, 0x01, 0x00, 0x00, 0x00, 0x37, 0x00, 0x00, 0x00,
  0x73, 0x65, 0x71, 0x75, 0x65, 0x6e, 0x74, 0x69, 0x61, 0x6c, 0x5f, 0x35,
  0x36, 0x2f, 0x64, 0x65, 0x6e, 0x73, 0x65, 0x5f, 0x31, 0x37, 0x30, 0x2f,
  0x42, 0x69, 0x61, 0x73, 0x41, 0x64, 0x64, 0x2f, 0x52, 0x65, 0x61, 0x64,
  0x56, 0x61, 0x72, 0x69, 0x61, 0x62, 0x6c, 0x65, 0x4f, 0x70, 0x2f, 0x72,
  0x65, 0x73, 0x6f, 0x75, 0x72, 0x63, 0x65, 0x00, 0xa0, 0xff, 0xff, 0xff,
  0x14, 0x00, 0x18, 0x00, 0x04, 0x00, 0x00, 0x00, 0x08, 0x00, 0x0c, 0x00,
  0x10, 0x00, 0x00, 0x00, 0x00, 0x00, 0x14, 0x00, 0x14, 0x00, 0x00, 0x00,
  0x14, 0x00, 0x00, 0x00, 0x01, 0x00, 0x00, 0x00, 0x24, 0x00, 0x00, 0x00,
  0x34, 0x00, 0x00, 0x00, 0x10, 0x00, 0x00, 0x00, 0x02, 0x00, 0x00, 0x00,
  0x01, 0x00, 0x00, 0x00, 0x01, 0x00, 0x00, 0x00, 0x02, 0x00, 0x00, 0x00,
  0xff, 0xff, 0xff, 0xff, 0x01, 0x00, 0x00, 0x00, 0x0f, 0x00, 0x00, 0x00,
  0x64, 0x65, 0x6e, 0x73, 0x65, 0x5f, 0x31, 0x36, 0x38, 0x5f, 0x69, 0x6e,
  0x70, 0x75, 0x74, 0x00, 0xfc, 0xff, 0xff, 0xff, 0x04, 0x00, 0x04, 0x00,
  0x04, 0x00, 0x00, 0x00
};

