float x_factor = 1;
float y_factor = 1;
unsigned char xyz_model[] = {
 0x1c, 0x00, 0x00, 0x00, 0x54, 0x46, 0x4c, 0x33, 0x14, 0x00, 0x20, 0x00,
  0x04, 0x00, 0x08, 0x00, 0x0c, 0x00, 0x10, 0x00, 0x14, 0x00, 0x00, 0x00,
  0x18, 0x00, 0x1c, 0x00, 0x14, 0x00, 0x00, 0x00, 0x03, 0x00, 0x00, 0x00,
  0x18, 0x00, 0x00, 0x00, 0x2c, 0x00, 0x00, 0x00, 0xbc, 0x00, 0x00, 0x00,
  0x2c, 0x00, 0x00, 0x00, 0x64, 0x00, 0x00, 0x00, 0x5c, 0x00, 0x00, 0x00,
  0x05, 0x00, 0x00, 0x00, 0xc8, 0x0c, 0x00, 0x00, 0xe4, 0x0b, 0x00, 0x00,
  0xb4, 0x0a, 0x00, 0x00, 0x04, 0x02, 0x00, 0x00, 0x68, 0x01, 0x00, 0x00,
  0x01, 0x00, 0x00, 0x00, 0xb4, 0x00, 0x00, 0x00, 0x0d, 0x00, 0x00, 0x00,
  0x14, 0x0f, 0x00, 0x00, 0x10, 0x0f, 0x00, 0x00, 0xf4, 0x0d, 0x00, 0x00,
  0x70, 0x0d, 0x00, 0x00, 0x04, 0x0f, 0x00, 0x00, 0x00, 0x0f, 0x00, 0x00,
  0xe8, 0x0a, 0x00, 0x00, 0xf8, 0x0e, 0x00, 0x00, 0xc0, 0x02, 0x00, 0x00,
  0x48, 0x02, 0x00, 0x00, 0xec, 0x0e, 0x00, 0x00, 0xe8, 0x0e, 0x00, 0x00,
  0x3c, 0x00, 0x00, 0x00, 0x00, 0x00, 0x00, 0x00, 0x01, 0x00, 0x00, 0x00,
  0x0c, 0x00, 0x00, 0x00, 0x08, 0x00, 0x0c, 0x00, 0x04, 0x00, 0x08, 0x00,
  0x08, 0x00, 0x00, 0x00, 0x08, 0x00, 0x00, 0x00, 0x0c, 0x00, 0x00, 0x00,
  0x13, 0x00, 0x00, 0x00, 0x6d, 0x69, 0x6e, 0x5f, 0x72, 0x75, 0x6e, 0x74,
  0x69, 0x6d, 0x65, 0x5f, 0x76, 0x65, 0x72, 0x73, 0x69, 0x6f, 0x6e, 0x00,
  0x76, 0xf2, 0xff, 0xff, 0x04, 0x00, 0x00, 0x00, 0x10, 0x00, 0x00, 0x00,
  0x31, 0x2e, 0x35, 0x2e, 0x30, 0x00, 0x00, 0x00, 0x00, 0x00, 0x00, 0x00,
  0x00, 0x00, 0x00, 0x00, 0x0f, 0x00, 0x00, 0x00, 0x4d, 0x4c, 0x49, 0x52,
  0x20, 0x43, 0x6f, 0x6e, 0x76, 0x65, 0x72, 0x74, 0x65, 0x64, 0x2e, 0x00,
  0x00, 0x00, 0x0e, 0x00, 0x18, 0x00, 0x04, 0x00, 0x08, 0x00, 0x0c, 0x00,
  0x10, 0x00, 0x14, 0x00, 0x0e, 0x00, 0x00, 0x00, 0x14, 0x00, 0x00, 0x00,
  0x40, 0x00, 0x00, 0x00, 0x44, 0x00, 0x00, 0x00, 0x48, 0x00, 0x00, 0x00,
  0x5c, 0x00, 0x00, 0x00, 0x0b, 0x00, 0x00, 0x00, 0xf0, 0x0d, 0x00, 0x00,
  0x8c, 0x0d, 0x00, 0x00, 0xc8, 0x0c, 0x00, 0x00, 0xe4, 0x0b, 0x00, 0x00,
  0x00, 0x0b, 0x00, 0x00, 0x48, 0x0a, 0x00, 0x00, 0xcc, 0x09, 0x00, 0x00,
  0x48, 0x09, 0x00, 0x00, 0xa0, 0x01, 0x00, 0x00, 0x14, 0x01, 0x00, 0x00,
  0x78, 0x00, 0x00, 0x00, 0x01, 0x00, 0x00, 0x00, 0x00, 0x00, 0x00, 0x00,
  0x01, 0x00, 0x00, 0x00, 0x0a, 0x00, 0x00, 0x00, 0x05, 0x00, 0x00, 0x00,
  0x4c, 0x0b, 0x00, 0x00, 0x6c, 0x0a, 0x00, 0x00, 0x68, 0x09, 0x00, 0x00,
  0xa8, 0x00, 0x00, 0x00, 0x10, 0x00, 0x00, 0x00, 0x04, 0x00, 0x00, 0x00,
  0x6d, 0x61, 0x69, 0x6e, 0x00, 0x00, 0x00, 0x00, 0x7a, 0xff, 0xff, 0xff,
  0x00, 0x00, 0x00, 0x09, 0x04, 0x00, 0x00, 0x00, 0x1c, 0x00, 0x00, 0x00,
  0x10, 0x00, 0x00, 0x00, 0x04, 0x00, 0x00, 0x00, 0x4a, 0xf3, 0xff, 0xff,
  0x00, 0x00, 0x80, 0x3f, 0x01, 0x00, 0x00, 0x00, 0x0a, 0x00, 0x00, 0x00,
  0x01, 0x00, 0x00, 0x00, 0x09, 0x00, 0x00, 0x00, 0xbc, 0xf4, 0xff, 0xff,
  0x19, 0x00, 0x00, 0x00, 0x00, 0x00, 0x00, 0x19, 0x01, 0x00, 0x00, 0x00,
  0xc4, 0xf2, 0xff, 0xff, 0x14, 0x00, 0x00, 0x00, 0x0b, 0x00, 0x00, 0x00,
  0x24, 0x00, 0x00, 0x00, 0x30, 0x00, 0x00, 0x00, 0x10, 0x00, 0x00, 0x00,
  0x02, 0x00, 0x00, 0x00, 0x01, 0x00, 0x00, 0x00, 0x04, 0x00, 0x00, 0x00,
  0x02, 0x00, 0x00, 0x00, 0xff, 0xff, 0xff, 0xff, 0x04, 0x00, 0x00, 0x00,
  0x08, 0x00, 0x00, 0x00, 0x49, 0x64, 0x65, 0x6e, 0x74, 0x69, 0x74, 0x79,
  0x00, 0x00, 0x00, 0x00, 0xbc, 0xf3, 0xff, 0xff, 0x00, 0x00, 0x0e, 0x00,
  0x18, 0x00, 0x08, 0x00, 0x0c, 0x00, 0x10, 0x00, 0x07, 0x00, 0x14, 0x00,
  0x0e, 0x00, 0x00, 0x00, 0x00, 0x00, 0x00, 0x08, 0x03, 0x00, 0x00, 0x00,
  0x18, 0x00, 0x00, 0x00, 0x0c, 0x00, 0x00, 0x00, 0x04, 0x00, 0x00, 0x00,
  0xc4, 0xf2, 0xff, 0xff, 0x01, 0x00, 0x00, 0x00, 0x09, 0x00, 0x00, 0x00,
  0x03, 0x00, 0x00, 0x00, 0x06, 0x00, 0x00, 0x00, 0x07, 0x00, 0x00, 0x00,
  0x08, 0x00, 0x00, 0x00, 0x54, 0xf5, 0xff, 0xff, 0x09, 0x00, 0x00, 0x00,
  0x00, 0x00, 0x00, 0x09, 0x01, 0x00, 0x00, 0x00, 0x5c, 0xf3, 0xff, 0xff,
  0x14, 0x00, 0x00, 0x00, 0x0a, 0x00, 0x00, 0x00, 0x24, 0x00, 0x00, 0x00,
  0x58, 0x00, 0x00, 0x00, 0x10, 0x00, 0x00, 0x00, 0x02, 0x00, 0x00, 0x00,
  0x01, 0x00, 0x00, 0x00, 0x04, 0x00, 0x00, 0x00, 0x02, 0x00, 0x00, 0x00,
  0xff, 0xff, 0xff, 0xff, 0x04, 0x00, 0x00, 0x00, 0x30, 0x00, 0x00, 0x00,
  0x73, 0x65, 0x71, 0x75, 0x65, 0x6e, 0x74, 0x69, 0x61, 0x6c, 0x2f, 0x64,
  0x65, 0x6e, 0x73, 0x65, 0x2f, 0x4d, 0x61, 0x74, 0x4d, 0x75, 0x6c, 0x3b,
  0x73, 0x65, 0x71, 0x75, 0x65, 0x6e, 0x74, 0x69, 0x61, 0x6c, 0x2f, 0x64,
  0x65, 0x6e, 0x73, 0x65, 0x2f, 0x42, 0x69, 0x61, 0x73, 0x41, 0x64, 0x64,
  0x00, 0x00, 0x00, 0x00, 0x58, 0xf3, 0xff, 0xff, 0x76, 0xf4, 0xff, 0xff,
  0x04, 0x00, 0x00, 0x00, 0x10, 0x00, 0x00, 0x00, 0x3e, 0x3d, 0xd9, 0xbf,
  0x9b, 0x52, 0xec, 0xbf, 0x68, 0x87, 0xee, 0xbf, 0xb9, 0x59, 0x39, 0x40,
  0x3e, 0xf4, 0xff, 0xff, 0x10, 0x00, 0x00, 0x00, 0x09, 0x00, 0x00, 0x00,
  0x10, 0x00, 0x00, 0x00, 0x44, 0x00, 0x00, 0x00, 0x01, 0x00, 0x00, 0x00,
  0x04, 0x00, 0x00, 0x00, 0x30, 0x00, 0x00, 0x00, 0x73, 0x65, 0x71, 0x75,
  0x65, 0x6e, 0x74, 0x69, 0x61, 0x6c, 0x2f, 0x64, 0x65, 0x6e, 0x73, 0x65,
  0x2f, 0x42, 0x69, 0x61, 0x73, 0x41, 0x64, 0x64, 0x2f, 0x52, 0x65, 0x61,
  0x64, 0x56, 0x61, 0x72, 0x69, 0x61, 0x62, 0x6c, 0x65, 0x4f, 0x70, 0x2f,
  0x72, 0x65, 0x73, 0x6f, 0x75, 0x72, 0x63, 0x65, 0x00, 0x00, 0x00, 0x00,
  0xcc, 0xf3, 0xff, 0xff, 0xea, 0xf4, 0xff, 0xff, 0x04, 0x00, 0x00, 0x00,
  0x40, 0x07, 0x00, 0x00, 0xa4, 0x3e, 0x2d, 0xbe, 0x13, 0xc8, 0x87, 0xbc,
  0x0a, 0x50, 0xa8, 0x3d, 0xbd, 0x45, 0x1a, 0xbf, 0x34, 0xfc, 0x2f, 0xbe,
  0xc9, 0x1e, 0x19, 0x3e, 0x0a, 0xd0, 0x9e, 0xbb, 0x9b, 0x62, 0x0d, 0xbf,
  0xb7, 0x84, 0xca, 0x3d, 0xd8, 0x22, 0xad, 0x3d, 0xa8, 0x67, 0x01, 0x3c,
  0x57, 0x75, 0x49, 0xbe, 0x91, 0x7e, 0xe9, 0x3d, 0x99, 0x9f, 0x26, 0x3d,
  0x74, 0x02, 0x5c, 0xbd, 0xab, 0x9b, 0xee, 0xbe, 0x9e, 0xe6, 0x5d, 0x3e,
  0x79, 0xf1, 0xff, 0x3d, 0x1c, 0x17, 0x73, 0x3e, 0x71, 0x90, 0x06, 0xbf,
  0x9f, 0xd0, 0x05, 0xbe, 0x52, 0x4d, 0x6e, 0x3d, 0xe0, 0x3e, 0x01, 0x3d,
  0xdf, 0x40, 0x94, 0xbe, 0x63, 0x97, 0x1d, 0x3e, 0xbe, 0x83, 0xf6, 0x3d,
  0x61, 0x1f, 0x7d, 0x3d, 0xcb, 0x11, 0x9a, 0xbe, 0x17, 0x67, 0xc6, 0xbc,
  0xdf, 0x86, 0x9c, 0x3e, 0x5d, 0xb6, 0x19, 0x3e, 0xa1, 0x26, 0xae, 0xbe,
  0x13, 0xa7, 0x5e, 0xbe, 0x4b, 0x64, 0xb6, 0x3e, 0xcc, 0x11, 0x87, 0x3e,
  0x56, 0x52, 0xcc, 0xbe, 0xa0, 0x61, 0x51, 0x3e, 0x9d, 0xc2, 0xd8, 0xbc,
  0x1d, 0xca, 0x70, 0xbd, 0xe8, 0xf8, 0x6e, 0xbe, 0x7c, 0x23, 0x2e, 0xbe,
  0xc8, 0xd6, 0x1d, 0x3e, 0x2d, 0x7e, 0x1a, 0x3e, 0x9c, 0x47, 0x0b, 0xbf,
  0x66, 0x49, 0x8e, 0x3e, 0x55, 0x2a, 0x60, 0xbb, 0xf2, 0x08, 0x43, 0x3e,
  0xbd, 0x90, 0x91, 0xbe, 0xb5, 0x3e, 0x93, 0xbd, 0xf9, 0x35, 0x14, 0x3e,
  0xd7, 0x92, 0xba, 0xbb, 0x2a, 0x9a, 0x21, 0xbf, 0x2c, 0xb7, 0x2f, 0xbc,
  0x8c, 0xff, 0xed, 0x3d, 0x6d, 0x91, 0x45, 0x3e, 0x2c, 0xbf, 0x2d, 0xbf,
  0x4e, 0x5e, 0x47, 0xbc, 0x24, 0xca, 0xd6, 0x3e, 0x19, 0x78, 0x2b, 0x3e,
  0x6f, 0xc0, 0x1e, 0xbf, 0x43, 0x20, 0xe5, 0xbd, 0xfd, 0xde, 0x77, 0x3e,
  0x24, 0xdc, 0x41, 0x3e, 0xb9, 0x44, 0x2e, 0xbf, 0xbd, 0xed, 0xe3, 0xbc,
  0x07, 0x4e, 0x5b, 0x3e, 0x81, 0xdf, 0xe3, 0x3e, 0xf5, 0xfa, 0x52, 0xbf,
  0x30, 0x00, 0x29, 0xbd, 0xdd, 0x3b, 0xdc, 0x3e, 0x97, 0x34, 0xa5, 0x3d,
  0xdc, 0x3a, 0x42, 0xbf, 0xbf, 0x1d, 0x78, 0x3e, 0xf9, 0x9d, 0x78, 0x3e,
  0x53, 0x5a, 0x59, 0x3e, 0x1f, 0x8b, 0x53, 0xbf, 0x48, 0xde, 0x4a, 0x3e,
  0xd4, 0x79, 0xe1, 0x3e, 0x9f, 0x7b, 0xa1, 0x3e, 0x96, 0x25, 0x5b, 0xbf,
  0xdf, 0x1a, 0x5c, 0x3e, 0xfc, 0x5c, 0xd0, 0x3e, 0x98, 0x0b, 0x82, 0x3e,
  0x8b, 0x51, 0x71, 0xbf, 0x6e, 0xc8, 0x8a, 0x3d, 0xd8, 0x78, 0x86, 0x3e,
  0x77, 0xa9, 0xb9, 0x3e, 0xcb, 0xc5, 0x62, 0xbf, 0x39, 0x23, 0x12, 0x3e,
  0x11, 0xf3, 0x26, 0x3e, 0xef, 0xc5, 0xf4, 0x3d, 0x46, 0x93, 0x38, 0xbf,
  0x4d, 0x7d, 0x27, 0x3e, 0x5a, 0xff, 0x08, 0x3f, 0xf2, 0x3d, 0x3f, 0x3e,
  0x76, 0x15, 0x48, 0xbf, 0xbb, 0xa7, 0x8d, 0x3e, 0x7b, 0x8f, 0xc1, 0x3e,
  0x8c, 0xbb, 0xd1, 0x3e, 0x3a, 0x1b, 0x3c, 0xbf, 0x5d, 0x0e, 0x89, 0x3e,
  0x2b, 0xf6, 0x8e, 0x3e, 0xc7, 0xa0, 0xf0, 0x3e, 0xe5, 0x46, 0x02, 0xbf,
  0x8e, 0xac, 0x7c, 0x3e, 0x4e, 0x2b, 0xb4, 0x3e, 0xf2, 0x6d, 0x4c, 0x3e,
  0xfa, 0x71, 0x0e, 0xbf, 0x81, 0x8c, 0xd4, 0x3e, 0x60, 0xea, 0x94, 0x3e,
  0x19, 0xe0, 0x58, 0x3e, 0xfd, 0x95, 0x0e, 0xbf, 0x92, 0x38, 0xab, 0x3d,
  0x70, 0xab, 0x0b, 0x3f, 0x98, 0x10, 0x94, 0x3e, 0x68, 0x07, 0x31, 0xbf,
  0xf5, 0x9e, 0x06, 0x3e, 0xcb, 0x70, 0x37, 0xbe, 0x6f, 0x9f, 0x64, 0xbd,
  0x7a, 0xb5, 0xb6, 0xbc, 0xb5, 0x76, 0x1e, 0xbe, 0xc8, 0x39, 0x8b, 0x3d,
  0x2b, 0xf2, 0x35, 0x3e, 0x7f, 0x97, 0xbd, 0x3d, 0x24, 0xcf, 0xb3, 0x3d,
  0x53, 0xf3, 0x21, 0xbe, 0x5c, 0xfc, 0x49, 0xbd, 0xd7, 0x8c, 0x56, 0x3e,
  0x0e, 0x9d, 0x47, 0x3e, 0xb5, 0xc8, 0xbb, 0xbd, 0x9f, 0xd3, 0x81, 0x3c,
  0xbf, 0xf5, 0xd9, 0x3d, 0x7a, 0xeb, 0x4d, 0xbe, 0xdd, 0xc2, 0x09, 0xbe,
  0xa1, 0xda, 0x18, 0x3e, 0x99, 0xe0, 0xbf, 0x3d, 0x8d, 0xfd, 0x8f, 0x3d,
  0x42, 0xcb, 0xec, 0x3d, 0x0e, 0xba, 0x19, 0x3e, 0x78, 0xca, 0xc0, 0x3d,
  0x2e, 0xc0, 0x4f, 0x3e, 0xd5, 0x1e, 0xcf, 0xbd, 0x07, 0xdd, 0x70, 0x3d,
  0x9c, 0x4e, 0x0d, 0x3e, 0x9d, 0x17, 0x8b, 0x3d, 0x8b, 0x8e, 0x30, 0x3d,
  0xdf, 0x79, 0x08, 0x3d, 0x42, 0x0f, 0xb3, 0x3e, 0xd2, 0x06, 0x0a, 0x3d,
  0xac, 0xd5, 0xe9, 0xbd, 0xc5, 0x42, 0x0a, 0x3e, 0x15, 0x87, 0xc4, 0x3e,
  0x4f, 0xa3, 0x42, 0x3d, 0x70, 0xf3, 0x2b, 0x3e, 0x53, 0xb5, 0x94, 0xbc,
  0x0c, 0xe7, 0x58, 0x3d, 0x33, 0x60, 0x07, 0x3e, 0x3f, 0xd9, 0x08, 0xbc,
  0x71, 0x2f, 0x81, 0x3d, 0x8d, 0x8c, 0x41, 0xbd, 0x02, 0x5d, 0x42, 0xbe,
  0xad, 0xfc, 0x0a, 0x3e, 0x0b, 0x31, 0x77, 0x3d, 0x0a, 0xd0, 0x76, 0x3e,
  0x41, 0x88, 0x50, 0x3d, 0x60, 0x54, 0xe1, 0xbc, 0xa8, 0xbb, 0x44, 0xbc,
  0x23, 0xba, 0x86, 0x3e, 0x90, 0x22, 0x0d, 0xbe, 0xa5, 0xc1, 0x7a, 0xbe,
  0xa6, 0x35, 0xe3, 0xbd, 0x98, 0x47, 0x2a, 0xbe, 0xf8, 0x08, 0x61, 0x3c,
  0xbd, 0xf5, 0x61, 0xbd, 0xdf, 0x19, 0x2b, 0x3e, 0x21, 0xb9, 0x94, 0xbd,
  0xb6, 0x85, 0x41, 0xbc, 0x49, 0x1d, 0x74, 0x3c, 0xa7, 0x00, 0x2b, 0x3e,
  0x23, 0x07, 0x33, 0x3e, 0xa8, 0x99, 0xd6, 0x3c, 0x0a, 0x0f, 0x43, 0x3b,
  0xa4, 0xe2, 0x15, 0x3e, 0x31, 0x8d, 0x4a, 0xba, 0x99, 0x68, 0x09, 0xbd,
  0x9f, 0xac, 0x3e, 0xbe, 0x4f, 0x63, 0x0f, 0x3e, 0x2b, 0xa5, 0xc9, 0xbd,
  0x50, 0x0c, 0x81, 0xbd, 0x94, 0xea, 0x19, 0xbd, 0xf2, 0x51, 0xcc, 0x3c,
  0xb0, 0x17, 0x34, 0x3e, 0x48, 0x33, 0x0b, 0xbc, 0xd3, 0x36, 0x8b, 0xbe,
  0x2e, 0xc2, 0x38, 0x3e, 0x17, 0xcd, 0x1d, 0xbb, 0x78, 0x03, 0x41, 0x3e,
  0x11, 0x8a, 0x0a, 0x3c, 0x0d, 0xbc, 0xbd, 0x3c, 0x04, 0x34, 0xa3, 0x3c,
  0x52, 0x28, 0x5b, 0x3d, 0x03, 0x9b, 0xee, 0xbd, 0xd5, 0x6c, 0xa7, 0xbd,
  0xd3, 0xbb, 0x32, 0xbd, 0xd7, 0xab, 0x34, 0xbe, 0x0d, 0xf3, 0x97, 0x3c,
  0x34, 0x53, 0xeb, 0xbc, 0x64, 0x57, 0xec, 0xbc, 0xf7, 0xe2, 0x53, 0xbe,
  0x07, 0xdf, 0x01, 0x3e, 0x96, 0x57, 0xff, 0x3b, 0xa2, 0x0c, 0x35, 0x3e,
  0xae, 0x95, 0x63, 0xbe, 0x1f, 0xfc, 0x5f, 0xbe, 0x4d, 0xf4, 0xc8, 0xbc,
  0x7a, 0x4e, 0x5a, 0x3d, 0xb3, 0x3d, 0xc6, 0xbe, 0x31, 0x17, 0xe8, 0xbd,
  0x30, 0x54, 0x9f, 0x3d, 0x9e, 0x82, 0x1a, 0x3e, 0xf9, 0x69, 0x85, 0xbe,
  0x79, 0xc8, 0xde, 0x3d, 0xe1, 0x4c, 0x37, 0xbd, 0x0e, 0xef, 0xab, 0x3d,
  0x01, 0xbf, 0x75, 0xbe, 0x37, 0xa2, 0x1c, 0x3e, 0xa4, 0x6b, 0xde, 0x3d,
  0xd5, 0x81, 0xf2, 0x3e, 0xc1, 0xf5, 0x90, 0xbe, 0xcf, 0xb1, 0x0b, 0x3d,
  0xb7, 0xb6, 0x2b, 0xba, 0x4c, 0x53, 0x23, 0x3e, 0x9b, 0x1c, 0x12, 0x3e,
  0x48, 0x08, 0xd8, 0xbe, 0xc6, 0x9c, 0x59, 0xbe, 0x4a, 0x7e, 0xd1, 0x3e,
  0x50, 0x40, 0x9c, 0x3b, 0x23, 0x99, 0x87, 0xbe, 0x36, 0x68, 0xb3, 0xbd,
  0x18, 0xa5, 0x00, 0x3f, 0xf3, 0xd6, 0xbc, 0xbd, 0xbe, 0xc2, 0xcf, 0xbe,
  0xea, 0x18, 0xe9, 0xbe, 0x5c, 0xc4, 0xe8, 0x3e, 0x7f, 0x9d, 0x14, 0x3b,
  0xd2, 0x4e, 0x03, 0xbf, 0x91, 0x4e, 0xc5, 0xbe, 0x70, 0xba, 0x08, 0x3f,
  0x1c, 0x3b, 0x0a, 0xbd, 0x62, 0xd2, 0x5f, 0xbe, 0x6c, 0x98, 0x01, 0xbe,
  0x27, 0x2b, 0x04, 0x3f, 0xbd, 0x36, 0x4b, 0x3e, 0x0e, 0x43, 0xaf, 0xbe,
  0xa7, 0xe1, 0xb6, 0xbe, 0x54, 0x3b, 0x4d, 0x3e, 0x8c, 0x88, 0x15, 0xbd,
  0xa3, 0x78, 0xcb, 0xbe, 0x2a, 0x40, 0x08, 0xbf, 0x50, 0x15, 0x87, 0x3e,
  0x29, 0x16, 0x5b, 0x3e, 0xeb, 0x9a, 0xa8, 0xbe, 0x70, 0x91, 0xaa, 0xbe,
  0x91, 0x49, 0x9d, 0x3e, 0x7f, 0x43, 0xff, 0xbd, 0xe3, 0x7f, 0x03, 0xbf,
  0x8e, 0x96, 0x3b, 0xbe, 0xeb, 0x6f, 0xb5, 0x3e, 0xcb, 0xef, 0xd6, 0xbd,
  0x20, 0x3b, 0xe5, 0xbe, 0xd3, 0x0f, 0xf3, 0xbc, 0xa9, 0x33, 0xcf, 0x3e,
  0xac, 0x68, 0xc0, 0x3d, 0xbd, 0x73, 0x5c, 0xbe, 0x5e, 0x7f, 0xb5, 0xbe,
  0x85, 0x80, 0xfd, 0x3e, 0x49, 0xfb, 0xbe, 0x3d, 0x86, 0xe7, 0x2b, 0xbe,
  0xa2, 0x4f, 0xc7, 0xbe, 0x12, 0x42, 0x19, 0x3f, 0x68, 0xe2, 0xb5, 0x3d,
  0xf9, 0xaa, 0x67, 0xbe, 0x2d, 0xc1, 0x77, 0xbe, 0x65, 0x14, 0x3d, 0x3f,
  0x76, 0x17, 0x27, 0x3d, 0xdb, 0x2f, 0xd1, 0xbe, 0xf4, 0x3e, 0x1a, 0xbe,
  0x03, 0xbe, 0x27, 0x3f, 0x4f, 0x57, 0x70, 0xbe, 0x4d, 0x83, 0xae, 0xbe,
  0xe1, 0xe4, 0x84, 0xbe, 0xc3, 0xb3, 0xc8, 0x3e, 0xe3, 0x0d, 0x26, 0xbe,
  0x85, 0x53, 0x92, 0xbe, 0x2c, 0x88, 0x92, 0xbe, 0xd6, 0x51, 0xc4, 0x3e,
  0x45, 0xde, 0x84, 0xbb, 0xf8, 0x0a, 0x13, 0xbe, 0x26, 0xf2, 0x4e, 0xbe,
  0xce, 0xe6, 0xbf, 0x3e, 0x2d, 0x17, 0x99, 0x3b, 0xa4, 0xbd, 0xff, 0xbe,
  0xc9, 0xe9, 0xe5, 0xbe, 0x82, 0xfd, 0x01, 0x3f, 0x7e, 0x8a, 0x2c, 0xbc,
  0x7e, 0xed, 0x59, 0xbe, 0xa4, 0xf8, 0x22, 0xbe, 0xb6, 0xe1, 0x37, 0x3f,
  0xf7, 0xfe, 0x3d, 0xbe, 0xe4, 0x58, 0x0a, 0xbf, 0xff, 0xce, 0xe9, 0xbe,
  0x8d, 0x31, 0x10, 0x3f, 0x63, 0x02, 0x27, 0xbe, 0xdb, 0xfa, 0xdb, 0xbe,
  0xb0, 0xb6, 0x2d, 0xbe, 0xae, 0xf0, 0x1e, 0x3f, 0xcd, 0x0f, 0xea, 0xbd,
  0x56, 0xd0, 0xd8, 0xbe, 0x89, 0xcf, 0xeb, 0xbe, 0xa2, 0xbc, 0x2a, 0x3f,
  0x04, 0x0b, 0x86, 0xbd, 0x89, 0xa3, 0x2e, 0xbf, 0x10, 0x06, 0x48, 0xbf,
  0x84, 0x07, 0x65, 0x3f, 0x57, 0x53, 0x18, 0xbd, 0x38, 0x35, 0x00, 0xbf,
  0x8d, 0xfa, 0x2e, 0xbf, 0x6f, 0xd0, 0x75, 0x3f, 0x2f, 0xa0, 0x87, 0x3e,
  0x60, 0xaf, 0x33, 0xbf, 0x4d, 0xf9, 0xb5, 0xbe, 0xe5, 0x57, 0x81, 0x3f,
  0x52, 0xbf, 0x0e, 0xbd, 0xc9, 0x24, 0xdf, 0xbe, 0x22, 0xe4, 0xe6, 0xbe,
  0xa8, 0xee, 0x65, 0x3f, 0x51, 0x3a, 0x71, 0x3e, 0x9e, 0xf2, 0x23, 0xbf,
  0xfa, 0x85, 0x03, 0xbf, 0x53, 0x9d, 0x20, 0x3f, 0xc6, 0xc9, 0x6d, 0x3e,
  0x2e, 0x5e, 0x28, 0xbf, 0x6e, 0xb3, 0x76, 0xbe, 0x13, 0xd9, 0x4a, 0x3f,
  0xf0, 0xb0, 0xe1, 0x3c, 0x0e, 0x8d, 0x61, 0xbf, 0x7a, 0x75, 0x25, 0xbf,
  0x3e, 0xf1, 0xdb, 0x3e, 0xed, 0x88, 0x83, 0xbd, 0x6c, 0x9b, 0xe3, 0xbb,
  0x54, 0x6f, 0x6b, 0x3d, 0xbe, 0xff, 0xb4, 0xbe, 0xdd, 0xc1, 0x08, 0x39,
  0x2f, 0x50, 0x76, 0xbe, 0x67, 0x79, 0x87, 0xbe, 0x36, 0x1b, 0xd6, 0xbe,
  0xe1, 0x71, 0xb4, 0xbd, 0x63, 0x52, 0x80, 0x3d, 0xb0, 0x56, 0x27, 0x3d,
  0x64, 0x95, 0x88, 0x3b, 0xbd, 0xab, 0xbc, 0xbd, 0x1c, 0x8f, 0x02, 0xbd,
  0xda, 0x58, 0xcd, 0xbb, 0x65, 0x13, 0xcb, 0xbd, 0x1f, 0xc3, 0x93, 0xbe,
  0x4d, 0x03, 0x8e, 0xbd, 0x58, 0xd6, 0x2e, 0xbe, 0xa9, 0xf2, 0x02, 0xbe,
  0xae, 0x5e, 0x89, 0x3d, 0x27, 0xd7, 0x18, 0xbe, 0x71, 0x00, 0x27, 0xbe,
  0xda, 0xbc, 0xbb, 0xbe, 0x5c, 0xb4, 0x95, 0xbe, 0xb4, 0xa6, 0x91, 0xbe,
  0x94, 0x24, 0x0c, 0x3d, 0x31, 0xd0, 0xc6, 0xbe, 0xeb, 0xad, 0xea, 0xbd,
  0x64, 0x92, 0x24, 0x3d, 0x5f, 0xef, 0x98, 0xbe, 0x3e, 0x5a, 0x10, 0xbe,
  0xeb, 0xb4, 0x7d, 0xbe, 0xc2, 0x44, 0xa2, 0x3d, 0x2e, 0x3c, 0x5e, 0xbe,
  0x53, 0x09, 0x80, 0xbd, 0x96, 0x60, 0xa1, 0xbe, 0x30, 0x50, 0x17, 0xbd,
  0x70, 0x3a, 0xfc, 0xbd, 0x0e, 0xe0, 0x8e, 0xbe, 0x7c, 0x7f, 0xa5, 0xbd,
  0x96, 0xb9, 0x50, 0xbd, 0x55, 0x48, 0x41, 0x3d, 0xd8, 0xaf, 0x65, 0xbe,
  0x90, 0xf8, 0x9f, 0xbe, 0xf4, 0xf6, 0x88, 0xbe, 0x41, 0x78, 0x78, 0xbd,
  0x88, 0x2c, 0x3c, 0xbd, 0x6b, 0xfc, 0x84, 0xbe, 0x64, 0x3e, 0x90, 0xbd,
  0xd7, 0xc2, 0x9a, 0xbd, 0x83, 0xac, 0xe4, 0xbd, 0x84, 0x02, 0x9c, 0x3d,
  0x3a, 0xde, 0x08, 0x3d, 0x91, 0x54, 0x97, 0xbe, 0xe2, 0x57, 0xba, 0xbe,
  0xb0, 0x50, 0x09, 0xbd, 0xa4, 0x93, 0xaa, 0xbe, 0x3f, 0x60, 0x92, 0xbe,
  0x7a, 0xe1, 0xa9, 0xbe, 0x97, 0x42, 0x8d, 0xbe, 0x80, 0xcc, 0x0e, 0xbe,
  0xdd, 0x93, 0xca, 0xbd, 0x50, 0x04, 0xd5, 0xbe, 0x23, 0x06, 0xa5, 0xbe,
  0x6a, 0x63, 0x5c, 0xbe, 0x0a, 0xe0, 0x08, 0x3c, 0xbd, 0xd7, 0xa2, 0xbe,
  0x4d, 0x86, 0xb4, 0xbe, 0x1e, 0x32, 0x28, 0xbe, 0xd0, 0x34, 0x23, 0xbd,
  0x63, 0x4a, 0x19, 0xbe, 0xeb, 0x67, 0x7b, 0xbe, 0x80, 0xca, 0x74, 0xbe,
  0xc9, 0x30, 0x9f, 0xbe, 0x97, 0xeb, 0xbb, 0xbd, 0x60, 0x84, 0x74, 0xbc,
  0xa3, 0xbe, 0xba, 0xbd, 0xe3, 0x03, 0x9a, 0xbe, 0xed, 0x73, 0xd8, 0xbe,
  0x11, 0x9a, 0x3c, 0xbc, 0x1d, 0x71, 0xfd, 0xbd, 0x4e, 0xcd, 0x2f, 0xbc,
  0xfa, 0x1d, 0xa9, 0xbe, 0x2e, 0xc6, 0x9b, 0xbe, 0x0c, 0xdc, 0x36, 0xbd,
  0x48, 0x75, 0x78, 0x3d, 0xb3, 0xa9, 0xbc, 0xbe, 0x67, 0x9b, 0x0c, 0x3d,
  0x25, 0xb9, 0xa3, 0xbc, 0xc6, 0x08, 0x80, 0xbe, 0x9d, 0x5a, 0x8f, 0xbc,
  0xbf, 0x50, 0x8e, 0xbe, 0xe0, 0x98, 0x9a, 0xbe, 0xa6, 0xdc, 0x79, 0xbe,
  0xc6, 0xfc, 0xaf, 0xbe, 0x56, 0xda, 0x2c, 0xbe, 0x85, 0xc1, 0x10, 0xbe,
  0xd7, 0x23, 0xbf, 0xbe, 0x7b, 0xc1, 0x03, 0xbf, 0x88, 0x14, 0x28, 0xbe,
  0x5a, 0x33, 0x74, 0xbe, 0x5f, 0xd1, 0xce, 0xbe, 0xee, 0x10, 0x85, 0xbe,
  0x55, 0x00, 0x3d, 0xbf, 0xd1, 0x99, 0xbc, 0xbe, 0x99, 0xa5, 0xfc, 0xbe,
  0xe1, 0xa3, 0xb6, 0xbe, 0x32, 0x43, 0x41, 0xbf, 0x59, 0x35, 0x61, 0xbf,
  0x57, 0x51, 0x6c, 0xbf, 0x69, 0x39, 0x34, 0xbf, 0x83, 0xf9, 0xd7, 0xbe,
  0x0a, 0x9f, 0x83, 0xbf, 0x20, 0x04, 0x4b, 0xbf, 0xee, 0xa9, 0x8b, 0xbf,
  0xe2, 0xfb, 0xff, 0xff, 0x10, 0x00, 0x00, 0x00, 0x08, 0x00, 0x00, 0x00,
  0x14, 0x00, 0x00, 0x00, 0x2c, 0x00, 0x00, 0x00, 0x02, 0x00, 0x00, 0x00,
  0x04, 0x00, 0x00, 0x00, 0x74, 0x00, 0x00, 0x00, 0x17, 0x00, 0x00, 0x00,
  0x73, 0x65, 0x71, 0x75, 0x65, 0x6e, 0x74, 0x69, 0x61, 0x6c, 0x2f, 0x64,
  0x65, 0x6e, 0x73, 0x65, 0x2f, 0x4d, 0x61, 0x74, 0x4d, 0x75, 0x6c, 0x00,
  0x7c, 0xfc, 0xff, 0xff, 0x00, 0x00, 0x0a, 0x00, 0x10, 0x00, 0x04, 0x00,
  0x08, 0x00, 0x0c, 0x00, 0x0a, 0x00, 0x00, 0x00, 0x02, 0x00, 0x00, 0x00,
  0x10, 0x00, 0x00, 0x00, 0x04, 0x00, 0x00, 0x00, 0x01, 0x00, 0x00, 0x00,
  0x06, 0x00, 0x00, 0x00, 0x02, 0x00, 0x00, 0x00, 0x04, 0x00, 0x00, 0x00,
  0x05, 0x00, 0x00, 0x00, 0x00, 0xfe, 0xff, 0xff, 0x16, 0x00, 0x00, 0x00,
  0x00, 0x00, 0x00, 0x16, 0x01, 0x00, 0x00, 0x00, 0x08, 0xfc, 0xff, 0xff,
  0x14, 0x00, 0x00, 0x00, 0x07, 0x00, 0x00, 0x00, 0x24, 0x00, 0x00, 0x00,
  0x40, 0x00, 0x00, 0x00, 0x10, 0x00, 0x00, 0x00, 0x02, 0x00, 0x00, 0x00,
  0x01, 0x00, 0x00, 0x00, 0x74, 0x00, 0x00, 0x00, 0x02, 0x00, 0x00, 0x00,
  0xff, 0xff, 0xff, 0xff, 0x74, 0x00, 0x00, 0x00, 0x1a, 0x00, 0x00, 0x00,
  0x73, 0x65, 0x71, 0x75, 0x65, 0x6e, 0x74, 0x69, 0x61, 0x6c, 0x2f, 0x66,
  0x6c, 0x61, 0x74, 0x74, 0x65, 0x6e, 0x2f, 0x52, 0x65, 0x73, 0x68, 0x61,
  0x70, 0x65, 0x00, 0x00, 0xec, 0xfb, 0xff, 0xff, 0x0a, 0xfd, 0xff, 0xff,
  0x04, 0x00, 0x00, 0x00, 0x08, 0x00, 0x00, 0x00, 0xff, 0xff, 0xff, 0xff,
  0x74, 0x00, 0x00, 0x00, 0x00, 0x00, 0x0e, 0x00, 0x18, 0x00, 0x08, 0x00,
  0x07, 0x00, 0x0c, 0x00, 0x10, 0x00, 0x14, 0x00, 0x0e, 0x00, 0x00, 0x00,
  0x00, 0x00, 0x00, 0x02, 0x10, 0x00, 0x00, 0x00, 0x06, 0x00, 0x00, 0x00,
  0x10, 0x00, 0x00, 0x00, 0x2c, 0x00, 0x00, 0x00, 0x01, 0x00, 0x00, 0x00,
  0x02, 0x00, 0x00, 0x00, 0x18, 0x00, 0x00, 0x00, 0x73, 0x65, 0x71, 0x75,
  0x65, 0x6e, 0x74, 0x69, 0x61, 0x6c, 0x2f, 0x66, 0x6c, 0x61, 0x74, 0x74,
  0x65, 0x6e, 0x2f, 0x43, 0x6f, 0x6e, 0x73, 0x74, 0x00, 0x00, 0x00, 0x00,
  0x78, 0xfd, 0xff, 0xff, 0x00, 0x00, 0x0e, 0x00, 0x1a, 0x00, 0x08, 0x00,
  0x0c, 0x00, 0x10, 0x00, 0x07, 0x00, 0x14, 0x00, 0x0e, 0x00, 0x00, 0x00,
  0x00, 0x00, 0x00, 0x05, 0x01, 0x00, 0x00, 0x00, 0x3c, 0x00, 0x00, 0x00,
  0x30, 0x00, 0x00, 0x00, 0x14, 0x00, 0x00, 0x00, 0x00, 0x00, 0x0e, 0x00,
  0x18, 0x00, 0x17, 0x00, 0x10, 0x00, 0x0c, 0x00, 0x08, 0x00, 0x04, 0x00,
  0x0e, 0x00, 0x00, 0x00, 0x02, 0x00, 0x00, 0x00, 0x02, 0x00, 0x00, 0x00,
  0x02, 0x00, 0x00, 0x00, 0x02, 0x00, 0x00, 0x00, 0x00, 0x00, 0x00, 0x01,
  0x01, 0x00, 0x00, 0x00, 0x04, 0x00, 0x00, 0x00, 0x01, 0x00, 0x00, 0x00,
  0x03, 0x00, 0x00, 0x00, 0x2c, 0xff, 0xff, 0xff, 0x11, 0x00, 0x00, 0x00,
  0x00, 0x00, 0x00, 0x11, 0x01, 0x00, 0x00, 0x00, 0x34, 0xfd, 0xff, 0xff,
  0x14, 0x00, 0x00, 0x00, 0x05, 0x00, 0x00, 0x00, 0x34, 0x00, 0x00, 0x00,
  0x58, 0x00, 0x00, 0x00, 0x18, 0x00, 0x00, 0x00, 0x04, 0x00, 0x00, 0x00,
  0x01, 0x00, 0x00, 0x00, 0x1d, 0x00, 0x00, 0x00, 0x01, 0x00, 0x00, 0x00,
  0x04, 0x00, 0x00, 0x00, 0x04, 0x00, 0x00, 0x00, 0xff, 0xff, 0xff, 0xff,
  0x1d, 0x00, 0x00, 0x00, 0x01, 0x00, 0x00, 0x00, 0x04, 0x00, 0x00, 0x00,
  0x20, 0x00, 0x00, 0x00, 0x73, 0x65, 0x71, 0x75, 0x65, 0x6e, 0x74, 0x69,
  0x61, 0x6c, 0x2f, 0x6d, 0x61, 0x78, 0x5f, 0x70, 0x6f, 0x6f, 0x6c, 0x69,
  0x6e, 0x67, 0x32, 0x64, 0x2f, 0x4d, 0x61, 0x78, 0x50, 0x6f, 0x6f, 0x6c,
  0x00, 0x00, 0x00, 0x00, 0x54, 0xfe, 0xff, 0xff, 0x00, 0x00, 0x0e, 0x00,
  0x14, 0x00, 0x00, 0x00, 0x08, 0x00, 0x0c, 0x00, 0x07, 0x00, 0x10, 0x00,
  0x0e, 0x00, 0x00, 0x00, 0x00, 0x00, 0x00, 0x01, 0x30, 0x00, 0x00, 0x00,
  0x24, 0x00, 0x00, 0x00, 0x10, 0x00, 0x00, 0x00, 0x0c, 0x00, 0x10, 0x00,
  0x0e, 0x00, 0x04, 0x00, 0x08, 0x00, 0x0f, 0x00, 0x0c, 0x00, 0x00, 0x00,
  0x01, 0x00, 0x00, 0x00, 0x01, 0x00, 0x00, 0x00, 0x00, 0x00, 0x01, 0x01,
  0x01, 0x00, 0x00, 0x00, 0x03, 0x00, 0x00, 0x00, 0x03, 0x00, 0x00, 0x00,
  0x00, 0x00, 0x00, 0x00, 0x01, 0x00, 0x00, 0x00, 0x02, 0x00, 0x00, 0x00,
  0x0c, 0x00, 0x10, 0x00, 0x0b, 0x00, 0x00, 0x00, 0x0c, 0x00, 0x04, 0x00,
  0x0c, 0x00, 0x00, 0x00, 0x03, 0x00, 0x00, 0x00, 0x00, 0x00, 0x00, 0x03,
  0x01, 0x00, 0x00, 0x00, 0x14, 0xfe, 0xff, 0xff, 0x14, 0x00, 0x00, 0x00,
  0x04, 0x00, 0x00, 0x00, 0x34, 0x00, 0x00, 0x00, 0xb0, 0x00, 0x00, 0x00,
  0x18, 0x00, 0x00, 0x00, 0x04, 0x00, 0x00, 0x00, 0x01, 0x00, 0x00, 0x00,
  0x3b, 0x00, 0x00, 0x00, 0x02, 0x00, 0x00, 0x00, 0x04, 0x00, 0x00, 0x00,
  0x04, 0x00, 0x00, 0x00, 0xff, 0xff, 0xff, 0xff, 0x3b, 0x00, 0x00, 0x00,
  0x02, 0x00, 0x00, 0x00, 0x04, 0x00, 0x00, 0x00, 0x7b, 0x00, 0x00, 0x00,
  0x73, 0x65, 0x71, 0x75, 0x65, 0x6e, 0x74, 0x69, 0x61, 0x6c, 0x2f, 0x63,
  0x6f, 0x6e, 0x76, 0x32, 0x64, 0x2f, 0x52, 0x65, 0x6c, 0x75, 0x3b, 0x73,
  0x65, 0x71, 0x75, 0x65, 0x6e, 0x74, 0x69, 0x61, 0x6c, 0x2f, 0x63, 0x6f,
  0x6e, 0x76, 0x32, 0x64, 0x2f, 0x42, 0x69, 0x61, 0x73, 0x41, 0x64, 0x64,
  0x3b, 0x73, 0x65, 0x71, 0x75, 0x65, 0x6e, 0x74, 0x69, 0x61, 0x6c, 0x2f,
  0x63, 0x6f, 0x6e, 0x76, 0x32, 0x64, 0x2f, 0x43, 0x6f, 0x6e, 0x76, 0x32,
  0x44, 0x3b, 0x73, 0x65, 0x71, 0x75, 0x65, 0x6e, 0x74, 0x69, 0x61, 0x6c,
  0x2f, 0x63, 0x6f, 0x6e, 0x76, 0x32, 0x64, 0x2f, 0x42, 0x69, 0x61, 0x73,
  0x41, 0x64, 0x64, 0x2f, 0x52, 0x65, 0x61, 0x64, 0x56, 0x61, 0x72, 0x69,
  0x61, 0x62, 0x6c, 0x65, 0x4f, 0x70, 0x2f, 0x72, 0x65, 0x73, 0x6f, 0x75,
  0x72, 0x63, 0x65, 0x00, 0x68, 0xfe, 0xff, 0xff, 0x86, 0xff, 0xff, 0xff,
  0x04, 0x00, 0x00, 0x00, 0x10, 0x00, 0x00, 0x00, 0xbd, 0xb5, 0x7a, 0xbc,
  0xf7, 0x35, 0x8b, 0xbd, 0x1a, 0xdc, 0xf1, 0xbb, 0x51, 0xe7, 0x6e, 0xbc,
  0x4e, 0xff, 0xff, 0xff, 0x10, 0x00, 0x00, 0x00, 0x03, 0x00, 0x00, 0x00,
  0x10, 0x00, 0x00, 0x00, 0x48, 0x00, 0x00, 0x00, 0x01, 0x00, 0x00, 0x00,
  0x04, 0x00, 0x00, 0x00, 0x31, 0x00, 0x00, 0x00, 0x73, 0x65, 0x71, 0x75,
  0x65, 0x6e, 0x74, 0x69, 0x61, 0x6c, 0x2f, 0x63, 0x6f, 0x6e, 0x76, 0x32,
  0x64, 0x2f, 0x42, 0x69, 0x61, 0x73, 0x41, 0x64, 0x64, 0x2f, 0x52, 0x65,
  0x61, 0x64, 0x56, 0x61, 0x72, 0x69, 0x61, 0x62, 0x6c, 0x65, 0x4f, 0x70,
  0x2f, 0x72, 0x65, 0x73, 0x6f, 0x75, 0x72, 0x63, 0x65, 0x00, 0x00, 0x00,
  0x04, 0x00, 0x06, 0x00, 0x04, 0x00, 0x00, 0x00, 0x00, 0x00, 0x06, 0x00,
  0x08, 0x00, 0x04, 0x00, 0x06, 0x00, 0x00, 0x00, 0x04, 0x00, 0x00, 0x00,
  0x40, 0x00, 0x00, 0x00, 0xef, 0xc4, 0x91, 0x3e, 0x95, 0x62, 0xb8, 0xbe,
  0xd7, 0xfd, 0x21, 0xbf, 0x99, 0xc8, 0x00, 0x3f, 0xc1, 0x05, 0x58, 0xbf,
  0x77, 0xb9, 0x20, 0x3e, 0x47, 0x2e, 0x81, 0xbf, 0xcd, 0xdc, 0x61, 0x3e,
  0x76, 0xcd, 0x1e, 0xbf, 0xfd, 0x54, 0x8e, 0x3e, 0x49, 0x10, 0x5c, 0xbf,
  0x3e, 0x04, 0x7a, 0x3e, 0xab, 0x4d, 0xeb, 0xbe, 0x6a, 0x1d, 0x59, 0xbf,
  0x3e, 0xf7, 0xf3, 0xbe, 0x8a, 0xd7, 0xb2, 0xbf, 0x00, 0x00, 0x0e, 0x00,
  0x14, 0x00, 0x04, 0x00, 0x00, 0x00, 0x08, 0x00, 0x0c, 0x00, 0x10, 0x00,
  0x0e, 0x00, 0x00, 0x00, 0x10, 0x00, 0x00, 0x00, 0x02, 0x00, 0x00, 0x00,
  0x1c, 0x00, 0x00, 0x00, 0x38, 0x00, 0x00, 0x00, 0x04, 0x00, 0x00, 0x00,
  0x04, 0x00, 0x00, 0x00, 0x02, 0x00, 0x00, 0x00, 0x02, 0x00, 0x00, 0x00,
  0x01, 0x00, 0x00, 0x00, 0x18, 0x00, 0x00, 0x00, 0x73, 0x65, 0x71, 0x75,
  0x65, 0x6e, 0x74, 0x69, 0x61, 0x6c, 0x2f, 0x63, 0x6f, 0x6e, 0x76, 0x32,
  0x64, 0x2f, 0x43, 0x6f, 0x6e, 0x76, 0x32, 0x44, 0x00, 0x00, 0x00, 0x00,
  0x90, 0xff, 0xff, 0xff, 0x14, 0x00, 0x18, 0x00, 0x04, 0x00, 0x00, 0x00,
  0x08, 0x00, 0x0c, 0x00, 0x10, 0x00, 0x00, 0x00, 0x00, 0x00, 0x14, 0x00,
  0x14, 0x00, 0x00, 0x00, 0x14, 0x00, 0x00, 0x00, 0x01, 0x00, 0x00, 0x00,
  0x34, 0x00, 0x00, 0x00, 0x44, 0x00, 0x00, 0x00, 0x18, 0x00, 0x00, 0x00,
  0x04, 0x00, 0x00, 0x00, 0x01, 0x00, 0x00, 0x00, 0x3c, 0x00, 0x00, 0x00,
  0x03, 0x00, 0x00, 0x00, 0x01, 0x00, 0x00, 0x00, 0x04, 0x00, 0x00, 0x00,
  0xff, 0xff, 0xff, 0xff, 0x3c, 0x00, 0x00, 0x00, 0x03, 0x00, 0x00, 0x00,
  0x01, 0x00, 0x00, 0x00, 0x0c, 0x00, 0x00, 0x00, 0x63, 0x6f, 0x6e, 0x76,
  0x32, 0x64, 0x5f, 0x69, 0x6e, 0x70, 0x75, 0x74, 0x00, 0x00, 0x00, 0x00,
  0xfc, 0xff, 0xff, 0xff, 0x04, 0x00, 0x04, 0x00, 0x04, 0x00, 0x00, 0x00
 
};

