float x_factor = 1;
float y_factor = 1;
unsigned char xyz_model[] __attribute__((aligned(4)))= {
 0x1c, 0x00, 0x00, 0x00, 0x54, 0x46, 0x4c, 0x33, 0x14, 0x00, 0x20, 0x00,
  0x04, 0x00, 0x08, 0x00, 0x0c, 0x00, 0x10, 0x00, 0x14, 0x00, 0x00, 0x00,
  0x18, 0x00, 0x1c, 0x00, 0x14, 0x00, 0x00, 0x00, 0x03, 0x00, 0x00, 0x00,
  0x18, 0x00, 0x00, 0x00, 0x2c, 0x00, 0x00, 0x00, 0xbc, 0x00, 0x00, 0x00,
  0x2c, 0x00, 0x00, 0x00, 0x64, 0x00, 0x00, 0x00, 0x5c, 0x00, 0x00, 0x00,
  0x05, 0x00, 0x00, 0x00, 0xe4, 0x0c, 0x00, 0x00, 0xfc, 0x0b, 0x00, 0x00,
  0xc4, 0x0a, 0x00, 0x00, 0x04, 0x02, 0x00, 0x00, 0x68, 0x01, 0x00, 0x00,
  0x01, 0x00, 0x00, 0x00, 0xb4, 0x00, 0x00, 0x00, 0x0d, 0x00, 0x00, 0x00,
  0x48, 0x0f, 0x00, 0x00, 0x44, 0x0f, 0x00, 0x00, 0x24, 0x0e, 0x00, 0x00,
  0x9c, 0x0d, 0x00, 0x00, 0x38, 0x0f, 0x00, 0x00, 0x34, 0x0f, 0x00, 0x00,
  0xfc, 0x0a, 0x00, 0x00, 0x2c, 0x0f, 0x00, 0x00, 0xcc, 0x02, 0x00, 0x00,
  0x50, 0x02, 0x00, 0x00, 0x20, 0x0f, 0x00, 0x00, 0x1c, 0x0f, 0x00, 0x00,
  0x3c, 0x00, 0x00, 0x00, 0x00, 0x00, 0x00, 0x00, 0x01, 0x00, 0x00, 0x00,
  0x0c, 0x00, 0x00, 0x00, 0x08, 0x00, 0x0c, 0x00, 0x04, 0x00, 0x08, 0x00,
  0x08, 0x00, 0x00, 0x00, 0x08, 0x00, 0x00, 0x00, 0x0c, 0x00, 0x00, 0x00,
  0x13, 0x00, 0x00, 0x00, 0x6d, 0x69, 0x6e, 0x5f, 0x72, 0x75, 0x6e, 0x74,
  0x69, 0x6d, 0x65, 0x5f, 0x76, 0x65, 0x72, 0x73, 0x69, 0x6f, 0x6e, 0x00,
  0x46, 0xf2, 0xff, 0xff, 0x04, 0x00, 0x00, 0x00, 0x10, 0x00, 0x00, 0x00,
  0x31, 0x2e, 0x35, 0x2e, 0x30, 0x00, 0x00, 0x00, 0x00, 0x00, 0x00, 0x00,
  0x00, 0x00, 0x00, 0x00, 0x0f, 0x00, 0x00, 0x00, 0x4d, 0x4c, 0x49, 0x52,
  0x20, 0x43, 0x6f, 0x6e, 0x76, 0x65, 0x72, 0x74, 0x65, 0x64, 0x2e, 0x00,
  0x00, 0x00, 0x0e, 0x00, 0x18, 0x00, 0x04, 0x00, 0x08, 0x00, 0x0c, 0x00,
  0x10, 0x00, 0x14, 0x00, 0x0e, 0x00, 0x00, 0x00, 0x14, 0x00, 0x00, 0x00,
  0x40, 0x00, 0x00, 0x00, 0x44, 0x00, 0x00, 0x00, 0x48, 0x00, 0x00, 0x00,
  0x5c, 0x00, 0x00, 0x00, 0x0b, 0x00, 0x00, 0x00, 0x24, 0x0e, 0x00, 0x00,
  0xbc, 0x0d, 0x00, 0x00, 0xf4, 0x0c, 0x00, 0x00, 0x00, 0x0c, 0x00, 0x00,
  0x18, 0x0b, 0x00, 0x00, 0x5c, 0x0a, 0x00, 0x00, 0xdc, 0x09, 0x00, 0x00,
  0x54, 0x09, 0x00, 0x00, 0xa8, 0x01, 0x00, 0x00, 0x14, 0x01, 0x00, 0x00,
  0x78, 0x00, 0x00, 0x00, 0x01, 0x00, 0x00, 0x00, 0x00, 0x00, 0x00, 0x00,
  0x01, 0x00, 0x00, 0x00, 0x0a, 0x00, 0x00, 0x00, 0x05, 0x00, 0x00, 0x00,
  0x68, 0x0b, 0x00, 0x00, 0x84, 0x0a, 0x00, 0x00, 0x78, 0x09, 0x00, 0x00,
  0xa8, 0x00, 0x00, 0x00, 0x10, 0x00, 0x00, 0x00, 0x04, 0x00, 0x00, 0x00,
  0x6d, 0x61, 0x69, 0x6e, 0x00, 0x00, 0x00, 0x00, 0x7a, 0xff, 0xff, 0xff,
  0x00, 0x00, 0x00, 0x09, 0x04, 0x00, 0x00, 0x00, 0x1c, 0x00, 0x00, 0x00,
  0x10, 0x00, 0x00, 0x00, 0x04, 0x00, 0x00, 0x00, 0x1a, 0xf3, 0xff, 0xff,
  0x00, 0x00, 0x80, 0x3f, 0x01, 0x00, 0x00, 0x00, 0x0a, 0x00, 0x00, 0x00,
  0x01, 0x00, 0x00, 0x00, 0x09, 0x00, 0x00, 0x00, 0xa0, 0xf4, 0xff, 0xff,
  0x19, 0x00, 0x00, 0x00, 0x00, 0x00, 0x00, 0x19, 0x01, 0x00, 0x00, 0x00,
  0x90, 0xf2, 0xff, 0xff, 0x14, 0x00, 0x00, 0x00, 0x0b, 0x00, 0x00, 0x00,
  0x24, 0x00, 0x00, 0x00, 0x30, 0x00, 0x00, 0x00, 0x10, 0x00, 0x00, 0x00,
  0x02, 0x00, 0x00, 0x00, 0x01, 0x00, 0x00, 0x00, 0x04, 0x00, 0x00, 0x00,
  0x02, 0x00, 0x00, 0x00, 0xff, 0xff, 0xff, 0xff, 0x04, 0x00, 0x00, 0x00,
  0x08, 0x00, 0x00, 0x00, 0x49, 0x64, 0x65, 0x6e, 0x74, 0x69, 0x74, 0x79,
  0x00, 0x00, 0x00, 0x00, 0x8c, 0xf3, 0xff, 0xff, 0x00, 0x00, 0x0e, 0x00,
  0x18, 0x00, 0x08, 0x00, 0x0c, 0x00, 0x10, 0x00, 0x07, 0x00, 0x14, 0x00,
  0x0e, 0x00, 0x00, 0x00, 0x00, 0x00, 0x00, 0x08, 0x03, 0x00, 0x00, 0x00,
  0x18, 0x00, 0x00, 0x00, 0x0c, 0x00, 0x00, 0x00, 0x04, 0x00, 0x00, 0x00,
  0x90, 0xf2, 0xff, 0xff, 0x01, 0x00, 0x00, 0x00, 0x09, 0x00, 0x00, 0x00,
  0x03, 0x00, 0x00, 0x00, 0x06, 0x00, 0x00, 0x00, 0x07, 0x00, 0x00, 0x00,
  0x08, 0x00, 0x00, 0x00, 0x38, 0xf5, 0xff, 0xff, 0x09, 0x00, 0x00, 0x00,
  0x00, 0x00, 0x00, 0x09, 0x01, 0x00, 0x00, 0x00, 0x28, 0xf3, 0xff, 0xff,
  0x14, 0x00, 0x00, 0x00, 0x0a, 0x00, 0x00, 0x00, 0x24, 0x00, 0x00, 0x00,
  0x60, 0x00, 0x00, 0x00, 0x10, 0x00, 0x00, 0x00, 0x02, 0x00, 0x00, 0x00,
  0x01, 0x00, 0x00, 0x00, 0x04, 0x00, 0x00, 0x00, 0x02, 0x00, 0x00, 0x00,
  0xff, 0xff, 0xff, 0xff, 0x04, 0x00, 0x00, 0x00, 0x38, 0x00, 0x00, 0x00,
  0x73, 0x65, 0x71, 0x75, 0x65, 0x6e, 0x74, 0x69, 0x61, 0x6c, 0x5f, 0x37,
  0x2f, 0x64, 0x65, 0x6e, 0x73, 0x65, 0x5f, 0x37, 0x2f, 0x4d, 0x61, 0x74,
  0x4d, 0x75, 0x6c, 0x3b, 0x73, 0x65, 0x71, 0x75, 0x65, 0x6e, 0x74, 0x69,
  0x61, 0x6c, 0x5f, 0x37, 0x2f, 0x64, 0x65, 0x6e, 0x73, 0x65, 0x5f, 0x37,
  0x2f, 0x42, 0x69, 0x61, 0x73, 0x41, 0x64, 0x64, 0x00, 0x00, 0x00, 0x00,
  0x2c, 0xf3, 0xff, 0xff, 0x4e, 0xf4, 0xff, 0xff, 0x04, 0x00, 0x00, 0x00,
  0x10, 0x00, 0x00, 0x00, 0xe2, 0x43, 0x0a, 0xc0, 0xe9, 0x92, 0x9f, 0xbf,
  0x02, 0xc2, 0xe0, 0xbf, 0x88, 0x61, 0x3d, 0x40, 0x16, 0xf4, 0xff, 0xff,
  0x10, 0x00, 0x00, 0x00, 0x09, 0x00, 0x00, 0x00, 0x10, 0x00, 0x00, 0x00,
  0x48, 0x00, 0x00, 0x00, 0x01, 0x00, 0x00, 0x00, 0x04, 0x00, 0x00, 0x00,
  0x34, 0x00, 0x00, 0x00, 0x73, 0x65, 0x71, 0x75, 0x65, 0x6e, 0x74, 0x69,
  0x61, 0x6c, 0x5f, 0x37, 0x2f, 0x64, 0x65, 0x6e, 0x73, 0x65, 0x5f, 0x37,
  0x2f, 0x42, 0x69, 0x61, 0x73, 0x41, 0x64, 0x64, 0x2f, 0x52, 0x65, 0x61,
  0x64, 0x56, 0x61, 0x72, 0x69, 0x61, 0x62, 0x6c, 0x65, 0x4f, 0x70, 0x2f,
  0x72, 0x65, 0x73, 0x6f, 0x75, 0x72, 0x63, 0x65, 0x00, 0x00, 0x00, 0x00,
  0xa4, 0xf3, 0xff, 0xff, 0xc6, 0xf4, 0xff, 0xff, 0x04, 0x00, 0x00, 0x00,
  0x40, 0x07, 0x00, 0x00, 0xdd, 0x4c, 0xa8, 0x3e, 0x23, 0xbd, 0x7b, 0xbe,
  0xd5, 0x72, 0x15, 0x3f, 0x91, 0xdd, 0x15, 0xbf, 0x97, 0xae, 0x8c, 0x3e,
  0x76, 0x00, 0x04, 0xbd, 0xa8, 0x21, 0x22, 0x3f, 0xc2, 0x5e, 0x1e, 0xbf,
  0xcc, 0x05, 0x87, 0x3e, 0x4b, 0xff, 0xfd, 0xbe, 0xf4, 0xc4, 0x28, 0x3f,
  0x06, 0x6d, 0x1e, 0xbf, 0x25, 0xb3, 0x24, 0x3f, 0xf9, 0x1c, 0x83, 0xbe,
  0x1e, 0xe0, 0x14, 0x3f, 0xf0, 0xed, 0xe0, 0xbe, 0xf3, 0x69, 0x3d, 0x3f,
  0x20, 0xad, 0xd3, 0xbe, 0x1e, 0x3a, 0xe9, 0x3e, 0x03, 0x28, 0x2b, 0xbf,
  0x40, 0xde, 0x1e, 0x3f, 0x57, 0xf7, 0xbb, 0xbe, 0x7e, 0x69, 0xb9, 0x3e,
  0x48, 0x30, 0xdc, 0xbe, 0x64, 0xac, 0xf6, 0x3e, 0x9d, 0x41, 0xdd, 0xbd,
  0x6f, 0x0a, 0x1e, 0x3f, 0x20, 0x04, 0xac, 0xbe, 0x1d, 0x4b, 0x25, 0x3f,
  0x25, 0x79, 0x07, 0xbe, 0x0b, 0xfe, 0x10, 0x3f, 0x22, 0x49, 0x0e, 0xbf,
  0xad, 0x01, 0xe4, 0x3e, 0xf9, 0x59, 0xab, 0x3d, 0xeb, 0x45, 0x1e, 0x3f,
  0xe5, 0x63, 0x03, 0xbf, 0xc3, 0x54, 0xe3, 0x3e, 0xec, 0x84, 0xe1, 0xbc,
  0x13, 0x92, 0x02, 0x3f, 0x02, 0x02, 0x1f, 0xbf, 0xe8, 0x87, 0x01, 0x3f,
  0xa5, 0x60, 0xae, 0xbe, 0xa0, 0x86, 0xf5, 0x3e, 0x0f, 0xbf, 0x19, 0xbf,
  0x8f, 0xcc, 0xf9, 0x3e, 0x85, 0x84, 0x02, 0xbf, 0x15, 0x19, 0x1f, 0x3f,
  0x6e, 0xf1, 0xf1, 0xbe, 0x1a, 0xfd, 0xef, 0x3e, 0x53, 0x95, 0xba, 0xbe,
  0xf8, 0x37, 0x15, 0x3f, 0xdc, 0x30, 0x4f, 0xbf, 0x8f, 0x8e, 0x2f, 0x3f,
  0x62, 0x77, 0x86, 0x3c, 0xce, 0x53, 0x06, 0x3f, 0x0e, 0x64, 0xf7, 0xbe,
  0x7e, 0xda, 0xd5, 0x3e, 0x55, 0xfd, 0xdd, 0xbe, 0xfb, 0xd6, 0x16, 0x3f,
  0x1d, 0xbd, 0xf0, 0xbe, 0x03, 0x20, 0x5e, 0x3f, 0xbc, 0xbd, 0xe2, 0xbe,
  0x0a, 0xbd, 0x34, 0x3f, 0x22, 0x26, 0x0a, 0xbf, 0x9e, 0x6d, 0x31, 0x3f,
  0x88, 0xe7, 0xdd, 0xbe, 0x8e, 0x53, 0xbd, 0x3e, 0x35, 0xb1, 0xc5, 0xbe,
  0xb1, 0x4a, 0x16, 0x3f, 0xbf, 0xa4, 0x1c, 0xbe, 0x1b, 0xd9, 0xdf, 0x3e,
  0xfd, 0xed, 0xf6, 0xbe, 0xe6, 0xf5, 0x1a, 0x3f, 0x3c, 0x14, 0xf1, 0xbe,
  0x58, 0x6c, 0x1a, 0x3f, 0xac, 0x7c, 0x03, 0xbf, 0xf9, 0xf4, 0xa6, 0x3e,
  0x78, 0x16, 0x50, 0xbe, 0xab, 0x74, 0xdc, 0x3e, 0xac, 0x2f, 0xfe, 0xbe,
  0xa1, 0x6e, 0x33, 0x3f, 0x5f, 0x5f, 0x37, 0xbd, 0xfe, 0x6f, 0xe4, 0x3e,
  0x68, 0x46, 0x3f, 0xbf, 0x76, 0x3e, 0xf6, 0x3e, 0xf0, 0x38, 0xa9, 0xbe,
  0xda, 0x7e, 0xa5, 0x3e, 0x43, 0xa0, 0x0f, 0xbf, 0xd8, 0xac, 0xa3, 0x3e,
  0x75, 0xa7, 0x8b, 0xbd, 0xe3, 0xa6, 0x04, 0x3f, 0x22, 0x0b, 0x17, 0xbf,
  0x94, 0x12, 0x2b, 0x3f, 0xf1, 0x41, 0x94, 0xbd, 0x99, 0x93, 0x91, 0x3e,
  0x4d, 0x71, 0xef, 0xbe, 0xba, 0x0e, 0x4a, 0x3f, 0x08, 0x99, 0x6f, 0xbc,
  0x93, 0xb1, 0xd4, 0x3e, 0xae, 0x19, 0x9c, 0xbe, 0xa3, 0x8e, 0x39, 0x3f,
  0xf2, 0xe1, 0xed, 0xbd, 0x52, 0x9c, 0x1a, 0x3f, 0xbc, 0x2e, 0x0e, 0xbf,
  0x62, 0x1e, 0xdd, 0x3e, 0x9a, 0x7c, 0x34, 0xbe, 0xaa, 0x4a, 0xb9, 0x3e,
  0xaf, 0xc6, 0xc9, 0xbe, 0xa2, 0xbc, 0x9c, 0x3e, 0x60, 0x05, 0x07, 0xbf,
  0xe0, 0x5a, 0xb8, 0x3e, 0xdf, 0x8b, 0x09, 0xbf, 0x57, 0x07, 0xea, 0x3e,
  0x7a, 0x66, 0x09, 0xbf, 0xd3, 0xf5, 0x09, 0x3f, 0x44, 0xed, 0x11, 0xbf,
  0xc7, 0x9f, 0xcd, 0x3c, 0x49, 0x47, 0xcc, 0xbd, 0x02, 0xa5, 0x5e, 0x3e,
  0x01, 0x98, 0x3f, 0xbe, 0xb7, 0xdd, 0xbd, 0x3c, 0x06, 0x0a, 0xaa, 0xbe,
  0x61, 0x1c, 0x7b, 0xbc, 0xb2, 0x69, 0x20, 0x3d, 0xf4, 0xd8, 0x0b, 0x3d,
  0x8e, 0xed, 0x58, 0xbe, 0x6a, 0xdc, 0x06, 0x3e, 0x93, 0xc1, 0xa9, 0x3d,
  0x42, 0x8c, 0xfc, 0x3d, 0xb9, 0x41, 0xcd, 0xbb, 0xd7, 0x2f, 0x58, 0xbd,
  0x33, 0x49, 0x1a, 0xbc, 0x5d, 0x24, 0xa9, 0xbd, 0x88, 0x92, 0x93, 0xbe,
  0x67, 0x26, 0x20, 0xbe, 0xd3, 0xe8, 0xa4, 0x3e, 0x98, 0xca, 0x79, 0xbe,
  0xff, 0xaf, 0x38, 0xbe, 0x14, 0x29, 0x35, 0xbe, 0xb2, 0x0f, 0x8a, 0x3d,
  0x41, 0xc0, 0x20, 0x3e, 0x0e, 0xec, 0x25, 0xbe, 0xc8, 0xc3, 0xd7, 0x3d,
  0x50, 0xfa, 0xb6, 0x3e, 0x6d, 0xc1, 0xb5, 0xbd, 0x51, 0x5a, 0xa4, 0x3d,
  0x52, 0x5b, 0x84, 0xbd, 0x1d, 0xe4, 0x18, 0x3d, 0x76, 0x01, 0x26, 0x3e,
  0x7c, 0xed, 0xde, 0xbe, 0xac, 0xc8, 0xc2, 0xbb, 0xfa, 0x92, 0xdc, 0x3d,
  0x36, 0x03, 0x17, 0x3d, 0x64, 0x81, 0x94, 0xbe, 0x9d, 0x36, 0xce, 0x3c,
  0x5e, 0xbe, 0xbf, 0x3e, 0xd3, 0x36, 0x1c, 0xbe, 0x4a, 0xc0, 0xaf, 0xbd,
  0x81, 0xff, 0x3d, 0x3d, 0x38, 0x7b, 0x0c, 0x3e, 0x64, 0x09, 0xa0, 0xbc,
  0x18, 0x66, 0x8b, 0xbe, 0xc6, 0x91, 0xd6, 0xbd, 0x5d, 0x33, 0xdf, 0x3d,
  0x5e, 0x2e, 0xa2, 0x3c, 0xdc, 0xae, 0x37, 0xbe, 0x1d, 0xbc, 0x0d, 0xbe,
  0x09, 0xd3, 0x55, 0x3e, 0x53, 0x99, 0x38, 0x3e, 0x16, 0x46, 0xeb, 0xbe,
  0x95, 0xf0, 0x46, 0x3e, 0x1a, 0xb8, 0x6a, 0x3e, 0x75, 0x8a, 0x4d, 0x3e,
  0x5d, 0x3f, 0xd1, 0xbd, 0x74, 0xd3, 0xe0, 0xbd, 0x32, 0xfc, 0x9e, 0x3c,
  0xd8, 0xc8, 0x0c, 0x3c, 0xb8, 0x40, 0xf4, 0xbe, 0xc4, 0xdb, 0xa5, 0x3d,
  0x36, 0x14, 0x27, 0x3e, 0xc2, 0xb2, 0xce, 0x3d, 0x7d, 0x05, 0xf3, 0xbe,
  0x7f, 0x7c, 0x9c, 0x3d, 0x9c, 0xad, 0x59, 0x3e, 0x19, 0x01, 0xc6, 0x3d,
  0x4b, 0xc3, 0x86, 0xbe, 0x01, 0xd8, 0x90, 0xbe, 0x7c, 0x0d, 0x88, 0x3e,
  0x5e, 0xff, 0x28, 0xbe, 0xca, 0x6c, 0xa4, 0xbe, 0x6a, 0x63, 0xd9, 0x3c,
  0xdd, 0x5a, 0x59, 0x3e, 0x12, 0x33, 0x3c, 0xbe, 0xbe, 0x6b, 0xd1, 0xbe,
  0x37, 0x80, 0x47, 0x3d, 0xb8, 0xb1, 0xbc, 0x3e, 0x3f, 0xa7, 0xbe, 0xbd,
  0x90, 0x31, 0x74, 0xbe, 0xec, 0xa7, 0xdd, 0x3d, 0xf9, 0x62, 0xa6, 0x3d,
  0xbd, 0x32, 0x2d, 0xbe, 0x94, 0x7c, 0x5a, 0xbe, 0x99, 0xab, 0x08, 0x3e,
  0x2c, 0x23, 0x7a, 0x3e, 0xe1, 0x3c, 0x0c, 0xbe, 0x30, 0x0d, 0xe1, 0xbe,
  0x9b, 0x90, 0xf6, 0xbd, 0x87, 0xfc, 0x83, 0xbc, 0xca, 0x4a, 0xd1, 0x3d,
  0x6a, 0x24, 0xca, 0xbd, 0x14, 0xea, 0x53, 0xbc, 0x39, 0x77, 0x0a, 0x3e,
  0xce, 0x01, 0xaa, 0xbd, 0xb0, 0x62, 0xe5, 0xbd, 0x6c, 0x07, 0x83, 0x3d,
  0x1a, 0x38, 0xab, 0x3e, 0x5a, 0x41, 0x5f, 0xbe, 0x90, 0x2c, 0x8a, 0xbe,
  0xa4, 0xe6, 0xb6, 0x3d, 0x68, 0xc5, 0x60, 0x3e, 0x4f, 0x7c, 0x4d, 0xbe,
  0x31, 0x5c, 0x8c, 0xbe, 0x37, 0xc3, 0x5b, 0xbe, 0x87, 0x0c, 0xa2, 0x3e,
  0xd1, 0xf3, 0x7d, 0xbe, 0x0e, 0x02, 0x70, 0xbe, 0x6b, 0x7b, 0x27, 0x3d,
  0xfd, 0x28, 0xb0, 0x3e, 0x10, 0x12, 0x8b, 0x3d, 0xff, 0xd7, 0xaf, 0xbe,
  0xb8, 0xd2, 0x48, 0x3e, 0xce, 0xf8, 0x1c, 0x3d, 0x8c, 0xc0, 0x1e, 0xbf,
  0x05, 0x18, 0x20, 0x3f, 0xc0, 0x73, 0x27, 0xbf, 0xe7, 0xc0, 0x07, 0x3f,
  0xf4, 0xaf, 0x2b, 0xbf, 0xf0, 0xd1, 0x1a, 0x3f, 0x61, 0x81, 0xdf, 0xbe,
  0xc4, 0x06, 0xf7, 0x3e, 0x09, 0x52, 0x33, 0xbf, 0xcf, 0x46, 0x8f, 0x3e,
  0x12, 0xb6, 0xc1, 0xbe, 0x33, 0x0d, 0x5a, 0x3e, 0x12, 0xa0, 0x94, 0xbe,
  0xe2, 0x7e, 0xa6, 0x3e, 0x03, 0x22, 0xe0, 0xbe, 0xae, 0xb2, 0x8c, 0x3e,
  0xc2, 0x15, 0xd4, 0xbe, 0x6d, 0x99, 0x8d, 0x3e, 0xc2, 0xdb, 0x9f, 0xbe,
  0x47, 0xfe, 0xc1, 0x3e, 0x8f, 0x8f, 0x2f, 0xbf, 0x95, 0x1e, 0xb9, 0x3e,
  0xc2, 0x2b, 0xf2, 0xbe, 0x5c, 0x8d, 0x8c, 0x3e, 0x98, 0xb4, 0xab, 0xbe,
  0xc8, 0x48, 0x12, 0x3f, 0xa2, 0x98, 0xbc, 0xbe, 0xf0, 0xca, 0x69, 0xbd,
  0x38, 0x78, 0x8d, 0xbe, 0x06, 0x30, 0x76, 0x3e, 0x7f, 0x59, 0x54, 0xbe,
  0xc7, 0xc4, 0xab, 0x3e, 0x1f, 0x98, 0x15, 0xbf, 0x1a, 0x63, 0x1b, 0x3f,
  0x72, 0x1e, 0x03, 0xbf, 0xef, 0xad, 0x7e, 0x3d, 0x57, 0x1c, 0x19, 0xbf,
  0x2c, 0x23, 0x0e, 0x3f, 0x37, 0xbe, 0x67, 0xbe, 0xe5, 0x69, 0x09, 0x3e,
  0xc6, 0x28, 0xd1, 0xbe, 0x51, 0x01, 0x20, 0x3f, 0x41, 0x71, 0x35, 0xbe,
  0xdb, 0x35, 0x3d, 0x3e, 0x05, 0x15, 0x45, 0xbf, 0x69, 0x7b, 0xf1, 0x3e,
  0x62, 0x7a, 0xf5, 0xbe, 0x0c, 0x34, 0xa7, 0x3e, 0xc3, 0x06, 0x26, 0xbf,
  0x22, 0x69, 0x28, 0x3f, 0x80, 0x2c, 0xc7, 0xbe, 0x3d, 0xcd, 0xfd, 0x3d,
  0x96, 0xde, 0x21, 0xbf, 0xb2, 0x91, 0xca, 0x3e, 0xc6, 0xbe, 0xf8, 0xbe,
  0x6c, 0x6f, 0xa2, 0x3e, 0xd8, 0x38, 0xe5, 0xbe, 0x23, 0x57, 0x00, 0x3f,
  0xa9, 0x4a, 0xf0, 0xbe, 0xf7, 0x8d, 0x99, 0x3e, 0x90, 0xb4, 0x7c, 0xbe,
  0xa8, 0x1e, 0x17, 0x3f, 0x3b, 0xc0, 0x14, 0xbf, 0xf8, 0x50, 0xde, 0xbb,
  0x7c, 0x54, 0x24, 0xbf, 0xcd, 0x5a, 0x3c, 0x3f, 0x3b, 0x11, 0x9a, 0xbe,
  0xa8, 0xa2, 0x5d, 0xbc, 0xab, 0xa3, 0xe5, 0xbe, 0xbd, 0x22, 0xfa, 0x3e,
  0x4d, 0x67, 0xf0, 0xbe, 0x19, 0xde, 0x82, 0x3e, 0xa3, 0x8e, 0x80, 0xbe,
  0x9b, 0x36, 0x06, 0x3f, 0x04, 0x38, 0xcb, 0xbe, 0x48, 0xc3, 0x50, 0x3e,
  0xec, 0x3a, 0xdd, 0xbe, 0x15, 0xe9, 0xcd, 0x3e, 0xe4, 0xa8, 0xf2, 0xbe,
  0x96, 0xb1, 0x90, 0x3e, 0xaa, 0xa7, 0x9e, 0xbe, 0x69, 0x3c, 0xdf, 0x3e,
  0xb3, 0xe1, 0xf2, 0xbe, 0xa3, 0x50, 0x4a, 0xbe, 0xef, 0xa0, 0xab, 0xbe,
  0xac, 0xc5, 0x13, 0x3f, 0x0b, 0xae, 0xa4, 0xbe, 0xac, 0x2f, 0x4d, 0xbe,
  0x44, 0x4d, 0xd6, 0xbe, 0x7c, 0xe6, 0xb8, 0x3e, 0xb5, 0x2a, 0xa1, 0xbe,
  0x2b, 0xb3, 0x06, 0x3e, 0x03, 0xca, 0xb1, 0xbe, 0xb0, 0x29, 0x16, 0x3f,
  0x1b, 0xd9, 0x25, 0xbf, 0xbd, 0xe9, 0xc9, 0x3c, 0xf1, 0x0d, 0x26, 0xbf,
  0xe6, 0x9c, 0xa2, 0x3e, 0x5e, 0x26, 0xdb, 0xbe, 0x38, 0x34, 0x0c, 0x3e,
  0x04, 0x80, 0x3c, 0xbe, 0x7b, 0xb1, 0xd8, 0x3e, 0x23, 0x45, 0x0b, 0xbf,
  0xb5, 0x9c, 0x6b, 0x3e, 0x64, 0x88, 0x5b, 0xbe, 0xe5, 0xc2, 0xd5, 0x3e,
  0xa6, 0x15, 0x32, 0xbd, 0xf8, 0xc1, 0xb9, 0xbc, 0xda, 0x20, 0x75, 0xbe,
  0xfd, 0xa8, 0x17, 0x3f, 0x76, 0xce, 0xbd, 0xbb, 0xd2, 0x67, 0xa4, 0x3e,
  0x6e, 0x94, 0xe0, 0xbe, 0x7c, 0xeb, 0xc8, 0x3e, 0x4b, 0x8b, 0xc9, 0xbe,
  0x87, 0xb7, 0xd5, 0x3d, 0xe0, 0x97, 0x24, 0xbf, 0x5b, 0x70, 0x1e, 0xbf,
  0x4e, 0x27, 0x3c, 0xbe, 0xb8, 0xcf, 0x26, 0xbf, 0x09, 0x07, 0x0b, 0xbf,
  0xb3, 0x12, 0x0a, 0xbf, 0x5c, 0x9c, 0xc8, 0xbe, 0x53, 0x7e, 0xae, 0xbe,
  0x6c, 0x47, 0x7d, 0xbe, 0x8a, 0xce, 0x09, 0xbf, 0x7a, 0x4f, 0x52, 0xbe,
  0x22, 0x69, 0x5d, 0xbf, 0x6f, 0x74, 0xa9, 0xbe, 0xaf, 0x98, 0x76, 0xbe,
  0x25, 0x2c, 0x90, 0xbe, 0x78, 0xb7, 0x1d, 0xbf, 0xd1, 0x27, 0x74, 0xbe,
  0xea, 0xed, 0xc6, 0xbe, 0x8a, 0x51, 0xb2, 0xbd, 0xeb, 0x0b, 0x25, 0xbf,
  0xfc, 0x94, 0x3a, 0x3d, 0x0c, 0xa4, 0xd8, 0xbe, 0xed, 0xa0, 0x54, 0xbe,
  0x83, 0x4d, 0xa8, 0xbe, 0x20, 0x4a, 0x36, 0xbe, 0xaa, 0xd8, 0x7f, 0xbe,
  0xc0, 0x35, 0xc3, 0xbd, 0xe8, 0x66, 0xfa, 0xbe, 0x27, 0xeb, 0xf2, 0xbe,
  0x74, 0xab, 0xc1, 0xbe, 0x9a, 0xce, 0x70, 0xbe, 0x88, 0x15, 0xaf, 0xbe,
  0xef, 0x6e, 0x0f, 0xbf, 0x14, 0xb8, 0x20, 0xbe, 0x60, 0x00, 0x2d, 0xbf,
  0xf3, 0xd3, 0x8b, 0xbe, 0x8d, 0x12, 0x59, 0xbf, 0x43, 0x2a, 0xee, 0xbe,
  0xcd, 0x40, 0x9d, 0xbe, 0x3d, 0x8a, 0xe5, 0xbe, 0x9d, 0x81, 0x15, 0xbf,
  0x4a, 0xaf, 0xcf, 0xbe, 0x41, 0x7a, 0x0e, 0xbf, 0xa0, 0xc8, 0x06, 0xbf,
  0x9c, 0xed, 0xf9, 0xbe, 0x8c, 0xd4, 0xa7, 0xbd, 0x21, 0xe9, 0xc1, 0xbe,
  0x55, 0x5f, 0x3e, 0xbf, 0x34, 0xe0, 0xe8, 0xbe, 0x82, 0x9a, 0x59, 0xbe,
  0x2a, 0x3d, 0xc2, 0xbe, 0xdc, 0x3c, 0x5e, 0xbf, 0x7b, 0x6a, 0xfe, 0xbe,
  0x2d, 0x19, 0x8f, 0xbe, 0x83, 0x12, 0x74, 0xbe, 0x81, 0x8a, 0x2c, 0xbf,
  0x43, 0xff, 0x9c, 0xbe, 0xff, 0xda, 0x58, 0xbd, 0x3e, 0x35, 0xd6, 0xbe,
  0x7d, 0xca, 0xd3, 0xbe, 0x98, 0x07, 0x04, 0xbf, 0x3f, 0xb2, 0xa5, 0xbe,
  0x63, 0x97, 0xf6, 0xbd, 0x8b, 0x1f, 0xdf, 0xbe, 0x45, 0xd1, 0xee, 0xbe,
  0xb3, 0xfc, 0x0b, 0xbe, 0x21, 0x64, 0xe1, 0xbe, 0xa5, 0x1f, 0xfd, 0xbe,
  0xaa, 0xb6, 0x82, 0xbe, 0x3b, 0x03, 0x3d, 0xbe, 0x6c, 0x03, 0x38, 0xbe,
  0x9c, 0xed, 0xbd, 0xbe, 0x9a, 0xac, 0x44, 0xbe, 0x18, 0x4f, 0x3e, 0xbe,
  0x4f, 0x4d, 0x4f, 0xbe, 0x1f, 0x68, 0xe4, 0xbe, 0xcc, 0xa0, 0x59, 0xbe,
  0x6f, 0xd0, 0x63, 0xbe, 0xec, 0x6d, 0xce, 0xbe, 0x11, 0xc4, 0x9b, 0xbd,
  0x37, 0x49, 0x91, 0xbd, 0x4e, 0xe3, 0xe8, 0xbe, 0x6f, 0x9f, 0xd0, 0xbe,
  0x3a, 0x52, 0xe0, 0xbd, 0x45, 0xaa, 0x5c, 0xbe, 0x8a, 0x2f, 0x2a, 0xbe,
  0x26, 0xb8, 0x8c, 0xbe, 0x9a, 0xcc, 0xc5, 0x3d, 0x3a, 0xb9, 0x9b, 0xbd,
  0x22, 0x41, 0x77, 0xbe, 0x84, 0xe6, 0x3d, 0xbe, 0xaa, 0xfd, 0x25, 0xbd,
  0xeb, 0xe0, 0xd4, 0xbe, 0x38, 0xc4, 0x39, 0xbe, 0x3f, 0xda, 0xc1, 0xbe,
  0xbb, 0xf4, 0xeb, 0xbe, 0x0e, 0xd1, 0x06, 0xbf, 0x6c, 0xb5, 0x4e, 0xbe,
  0xa6, 0x94, 0x08, 0xbf, 0x54, 0x01, 0x36, 0xbf, 0x71, 0xa3, 0xa7, 0xbe,
  0x03, 0xd8, 0xa5, 0xbe, 0x7a, 0x82, 0x88, 0xbe, 0xc3, 0xc9, 0xe1, 0xbe,
  0x33, 0x1e, 0x2c, 0xbe, 0x96, 0xbf, 0x78, 0xbe, 0x10, 0x88, 0xb5, 0xbe,
  0xdd, 0x64, 0x46, 0xbe, 0xb4, 0x9f, 0x79, 0xbd, 0x2a, 0x52, 0xfe, 0xbe,
  0x78, 0xa5, 0xf2, 0x3d, 0x29, 0xb0, 0x2e, 0xbf, 0x5b, 0x47, 0xc2, 0xbc,
  0x1a, 0xec, 0x67, 0xbf, 0x6c, 0x28, 0xbb, 0xbe, 0x81, 0x81, 0x7f, 0xbf,
  0xbe, 0xfb, 0xff, 0xff, 0x10, 0x00, 0x00, 0x00, 0x08, 0x00, 0x00, 0x00,
  0x14, 0x00, 0x00, 0x00, 0x30, 0x00, 0x00, 0x00, 0x02, 0x00, 0x00, 0x00,
  0x04, 0x00, 0x00, 0x00, 0x74, 0x00, 0x00, 0x00, 0x1b, 0x00, 0x00, 0x00,
  0x73, 0x65, 0x71, 0x75, 0x65, 0x6e, 0x74, 0x69, 0x61, 0x6c, 0x5f, 0x37,
  0x2f, 0x64, 0x65, 0x6e, 0x73, 0x65, 0x5f, 0x37, 0x2f, 0x4d, 0x61, 0x74,
  0x4d, 0x75, 0x6c, 0x00, 0x5c, 0xfc, 0xff, 0xff, 0x00, 0x00, 0x0a, 0x00,
  0x10, 0x00, 0x04, 0x00, 0x08, 0x00, 0x0c, 0x00, 0x0a, 0x00, 0x00, 0x00,
  0x02, 0x00, 0x00, 0x00, 0x10, 0x00, 0x00, 0x00, 0x04, 0x00, 0x00, 0x00,
  0x01, 0x00, 0x00, 0x00, 0x06, 0x00, 0x00, 0x00, 0x02, 0x00, 0x00, 0x00,
  0x04, 0x00, 0x00, 0x00, 0x05, 0x00, 0x00, 0x00, 0xf4, 0xfd, 0xff, 0xff,
  0x16, 0x00, 0x00, 0x00, 0x00, 0x00, 0x00, 0x16, 0x01, 0x00, 0x00, 0x00,
  0xe4, 0xfb, 0xff, 0xff, 0x14, 0x00, 0x00, 0x00, 0x07, 0x00, 0x00, 0x00,
  0x24, 0x00, 0x00, 0x00, 0x44, 0x00, 0x00, 0x00, 0x10, 0x00, 0x00, 0x00,
  0x02, 0x00, 0x00, 0x00, 0x01, 0x00, 0x00, 0x00, 0x74, 0x00, 0x00, 0x00,
  0x02, 0x00, 0x00, 0x00, 0xff, 0xff, 0xff, 0xff, 0x74, 0x00, 0x00, 0x00,
  0x1e, 0x00, 0x00, 0x00, 0x73, 0x65, 0x71, 0x75, 0x65, 0x6e, 0x74, 0x69,
  0x61, 0x6c, 0x5f, 0x37, 0x2f, 0x66, 0x6c, 0x61, 0x74, 0x74, 0x65, 0x6e,
  0x5f, 0x37, 0x2f, 0x52, 0x65, 0x73, 0x68, 0x61, 0x70, 0x65, 0x00, 0x00,
  0xcc, 0xfb, 0xff, 0xff, 0xee, 0xfc, 0xff, 0xff, 0x04, 0x00, 0x00, 0x00,
  0x08, 0x00, 0x00, 0x00, 0xff, 0xff, 0xff, 0xff, 0x74, 0x00, 0x00, 0x00,
  0x00, 0x00, 0x0e, 0x00, 0x18, 0x00, 0x08, 0x00, 0x07, 0x00, 0x0c, 0x00,
  0x10, 0x00, 0x14, 0x00, 0x0e, 0x00, 0x00, 0x00, 0x00, 0x00, 0x00, 0x02,
  0x10, 0x00, 0x00, 0x00, 0x06, 0x00, 0x00, 0x00, 0x10, 0x00, 0x00, 0x00,
  0x30, 0x00, 0x00, 0x00, 0x01, 0x00, 0x00, 0x00, 0x02, 0x00, 0x00, 0x00,
  0x1c, 0x00, 0x00, 0x00, 0x73, 0x65, 0x71, 0x75, 0x65, 0x6e, 0x74, 0x69,
  0x61, 0x6c, 0x5f, 0x37, 0x2f, 0x66, 0x6c, 0x61, 0x74, 0x74, 0x65, 0x6e,
  0x5f, 0x37, 0x2f, 0x43, 0x6f, 0x6e, 0x73, 0x74, 0x00, 0x00, 0x00, 0x00,
  0x60, 0xfd, 0xff, 0xff, 0x00, 0x00, 0x0e, 0x00, 0x1a, 0x00, 0x08, 0x00,
  0x0c, 0x00, 0x10, 0x00, 0x07, 0x00, 0x14, 0x00, 0x0e, 0x00, 0x00, 0x00,
  0x00, 0x00, 0x00, 0x05, 0x01, 0x00, 0x00, 0x00, 0x3c, 0x00, 0x00, 0x00,
  0x30, 0x00, 0x00, 0x00, 0x14, 0x00, 0x00, 0x00, 0x00, 0x00, 0x0e, 0x00,
  0x18, 0x00, 0x17, 0x00, 0x10, 0x00, 0x0c, 0x00, 0x08, 0x00, 0x04, 0x00,
  0x0e, 0x00, 0x00, 0x00, 0x02, 0x00, 0x00, 0x00, 0x02, 0x00, 0x00, 0x00,
  0x02, 0x00, 0x00, 0x00, 0x02, 0x00, 0x00, 0x00, 0x00, 0x00, 0x00, 0x01,
  0x01, 0x00, 0x00, 0x00, 0x04, 0x00, 0x00, 0x00, 0x01, 0x00, 0x00, 0x00,
  0x03, 0x00, 0x00, 0x00, 0x28, 0xff, 0xff, 0xff, 0x11, 0x00, 0x00, 0x00,
  0x00, 0x00, 0x00, 0x11, 0x01, 0x00, 0x00, 0x00, 0x18, 0xfd, 0xff, 0xff,
  0x14, 0x00, 0x00, 0x00, 0x05, 0x00, 0x00, 0x00, 0x34, 0x00, 0x00, 0x00,
  0x5c, 0x00, 0x00, 0x00, 0x18, 0x00, 0x00, 0x00, 0x04, 0x00, 0x00, 0x00,
  0x01, 0x00, 0x00, 0x00, 0x1d, 0x00, 0x00, 0x00, 0x01, 0x00, 0x00, 0x00,
  0x04, 0x00, 0x00, 0x00, 0x04, 0x00, 0x00, 0x00, 0xff, 0xff, 0xff, 0xff,
  0x1d, 0x00, 0x00, 0x00, 0x01, 0x00, 0x00, 0x00, 0x04, 0x00, 0x00, 0x00,
  0x24, 0x00, 0x00, 0x00, 0x73, 0x65, 0x71, 0x75, 0x65, 0x6e, 0x74, 0x69,
  0x61, 0x6c, 0x5f, 0x37, 0x2f, 0x6d, 0x61, 0x78, 0x5f, 0x70, 0x6f, 0x6f,
  0x6c, 0x69, 0x6e, 0x67, 0x32, 0x64, 0x5f, 0x37, 0x2f, 0x4d, 0x61, 0x78,
  0x50, 0x6f, 0x6f, 0x6c, 0x00, 0x00, 0x00, 0x00, 0x40, 0xfe, 0xff, 0xff,
  0x00, 0x00, 0x0e, 0x00, 0x14, 0x00, 0x00, 0x00, 0x08, 0x00, 0x0c, 0x00,
  0x07, 0x00, 0x10, 0x00, 0x0e, 0x00, 0x00, 0x00, 0x00, 0x00, 0x00, 0x01,
  0x30, 0x00, 0x00, 0x00, 0x24, 0x00, 0x00, 0x00, 0x10, 0x00, 0x00, 0x00,
  0x0c, 0x00, 0x10, 0x00, 0x0e, 0x00, 0x04, 0x00, 0x08, 0x00, 0x0f, 0x00,
  0x0c, 0x00, 0x00, 0x00, 0x01, 0x00, 0x00, 0x00, 0x01, 0x00, 0x00, 0x00,
  0x00, 0x00, 0x01, 0x01, 0x01, 0x00, 0x00, 0x00, 0x03, 0x00, 0x00, 0x00,
  0x03, 0x00, 0x00, 0x00, 0x00, 0x00, 0x00, 0x00, 0x01, 0x00, 0x00, 0x00,
  0x02, 0x00, 0x00, 0x00, 0x0c, 0x00, 0x10, 0x00, 0x0b, 0x00, 0x00, 0x00,
  0x0c, 0x00, 0x04, 0x00, 0x0c, 0x00, 0x00, 0x00, 0x03, 0x00, 0x00, 0x00,
  0x00, 0x00, 0x00, 0x03, 0x01, 0x00, 0x00, 0x00, 0xfc, 0xfd, 0xff, 0xff,
  0x14, 0x00, 0x00, 0x00, 0x04, 0x00, 0x00, 0x00, 0x34, 0x00, 0x00, 0x00,
  0xc0, 0x00, 0x00, 0x00, 0x18, 0x00, 0x00, 0x00, 0x04, 0x00, 0x00, 0x00,
  0x01, 0x00, 0x00, 0x00, 0x3b, 0x00, 0x00, 0x00, 0x02, 0x00, 0x00, 0x00,
  0x04, 0x00, 0x00, 0x00, 0x04, 0x00, 0x00, 0x00, 0xff, 0xff, 0xff, 0xff,
  0x3b, 0x00, 0x00, 0x00, 0x02, 0x00, 0x00, 0x00, 0x04, 0x00, 0x00, 0x00,
  0x8b, 0x00, 0x00, 0x00, 0x73, 0x65, 0x71, 0x75, 0x65, 0x6e, 0x74, 0x69,
  0x61, 0x6c, 0x5f, 0x37, 0x2f, 0x63, 0x6f, 0x6e, 0x76, 0x32, 0x64, 0x5f,
  0x37, 0x2f, 0x52, 0x65, 0x6c, 0x75, 0x3b, 0x73, 0x65, 0x71, 0x75, 0x65,
  0x6e, 0x74, 0x69, 0x61, 0x6c, 0x5f, 0x37, 0x2f, 0x63, 0x6f, 0x6e, 0x76,
  0x32, 0x64, 0x5f, 0x37, 0x2f, 0x42, 0x69, 0x61, 0x73, 0x41, 0x64, 0x64,
  0x3b, 0x73, 0x65, 0x71, 0x75, 0x65, 0x6e, 0x74, 0x69, 0x61, 0x6c, 0x5f,
  0x37, 0x2f, 0x63, 0x6f, 0x6e, 0x76, 0x32, 0x64, 0x5f, 0x37, 0x2f, 0x43,
  0x6f, 0x6e, 0x76, 0x32, 0x44, 0x3b, 0x73, 0x65, 0x71, 0x75, 0x65, 0x6e,
  0x74, 0x69, 0x61, 0x6c, 0x5f, 0x37, 0x2f, 0x63, 0x6f, 0x6e, 0x76, 0x32,
  0x64, 0x5f, 0x37, 0x2f, 0x42, 0x69, 0x61, 0x73, 0x41, 0x64, 0x64, 0x2f,
  0x52, 0x65, 0x61, 0x64, 0x56, 0x61, 0x72, 0x69, 0x61, 0x62, 0x6c, 0x65,
  0x4f, 0x70, 0x2f, 0x72, 0x65, 0x73, 0x6f, 0x75, 0x72, 0x63, 0x65, 0x00,
  0x60, 0xfe, 0xff, 0xff, 0x82, 0xff, 0xff, 0xff, 0x04, 0x00, 0x00, 0x00,
  0x10, 0x00, 0x00, 0x00, 0x91, 0xf5, 0xd0, 0xbe, 0xc7, 0x87, 0x30, 0xbf,
  0x7c, 0x9d, 0x10, 0xbf, 0xdf, 0xb6, 0xa7, 0xbc, 0x4a, 0xff, 0xff, 0xff,
  0x10, 0x00, 0x00, 0x00, 0x03, 0x00, 0x00, 0x00, 0x10, 0x00, 0x00, 0x00,
  0x4c, 0x00, 0x00, 0x00, 0x01, 0x00, 0x00, 0x00, 0x04, 0x00, 0x00, 0x00,
  0x35, 0x00, 0x00, 0x00, 0x73, 0x65, 0x71, 0x75, 0x65, 0x6e, 0x74, 0x69,
  0x61, 0x6c, 0x5f, 0x37, 0x2f, 0x63, 0x6f, 0x6e, 0x76, 0x32, 0x64, 0x5f,
  0x37, 0x2f, 0x42, 0x69, 0x61, 0x73, 0x41, 0x64, 0x64, 0x2f, 0x52, 0x65,
  0x61, 0x64, 0x56, 0x61, 0x72, 0x69, 0x61, 0x62, 0x6c, 0x65, 0x4f, 0x70,
  0x2f, 0x72, 0x65, 0x73, 0x6f, 0x75, 0x72, 0x63, 0x65, 0x00, 0x00, 0x00,
  0x04, 0x00, 0x06, 0x00, 0x04, 0x00, 0x00, 0x00, 0x00, 0x00, 0x06, 0x00,
  0x08, 0x00, 0x04, 0x00, 0x06, 0x00, 0x00, 0x00, 0x04, 0x00, 0x00, 0x00,
  0x40, 0x00, 0x00, 0x00, 0xe8, 0x77, 0x4a, 0xbf, 0x40, 0x47, 0x47, 0xbd,
  0x4c, 0xeb, 0xa7, 0xbf, 0x1e, 0x76, 0x15, 0x3c, 0xd1, 0x99, 0x13, 0xbf,
  0x25, 0xa7, 0x31, 0x3f, 0xaa, 0x69, 0x14, 0xbd, 0x75, 0xd3, 0x7a, 0x3f,
  0xa5, 0x86, 0x96, 0xbf, 0x32, 0x0d, 0x10, 0xbe, 0xab, 0x5f, 0xa8, 0xbf,
  0xf6, 0x5f, 0x8b, 0x3d, 0xef, 0x0e, 0x44, 0xbf, 0xdc, 0x47, 0xca, 0x3f,
  0xc9, 0xc7, 0xb5, 0xbe, 0xee, 0x95, 0x88, 0x3f, 0x00, 0x00, 0x0e, 0x00,
  0x14, 0x00, 0x04, 0x00, 0x00, 0x00, 0x08, 0x00, 0x0c, 0x00, 0x10, 0x00,
  0x0e, 0x00, 0x00, 0x00, 0x10, 0x00, 0x00, 0x00, 0x02, 0x00, 0x00, 0x00,
  0x1c, 0x00, 0x00, 0x00, 0x3c, 0x00, 0x00, 0x00, 0x04, 0x00, 0x00, 0x00,
  0x04, 0x00, 0x00, 0x00, 0x02, 0x00, 0x00, 0x00, 0x02, 0x00, 0x00, 0x00,
  0x01, 0x00, 0x00, 0x00, 0x1c, 0x00, 0x00, 0x00, 0x73, 0x65, 0x71, 0x75,
  0x65, 0x6e, 0x74, 0x69, 0x61, 0x6c, 0x5f, 0x37, 0x2f, 0x63, 0x6f, 0x6e,
  0x76, 0x32, 0x64, 0x5f, 0x37, 0x2f, 0x43, 0x6f, 0x6e, 0x76, 0x32, 0x44,
  0x00, 0x00, 0x00, 0x00, 0x90, 0xff, 0xff, 0xff, 0x14, 0x00, 0x18, 0x00,
  0x04, 0x00, 0x00, 0x00, 0x08, 0x00, 0x0c, 0x00, 0x10, 0x00, 0x00, 0x00,
  0x00, 0x00, 0x14, 0x00, 0x14, 0x00, 0x00, 0x00, 0x14, 0x00, 0x00, 0x00,
  0x01, 0x00, 0x00, 0x00, 0x34, 0x00, 0x00, 0x00, 0x44, 0x00, 0x00, 0x00,
  0x18, 0x00, 0x00, 0x00, 0x04, 0x00, 0x00, 0x00, 0x01, 0x00, 0x00, 0x00,
  0x3c, 0x00, 0x00, 0x00, 0x03, 0x00, 0x00, 0x00, 0x01, 0x00, 0x00, 0x00,
  0x04, 0x00, 0x00, 0x00, 0xff, 0xff, 0xff, 0xff, 0x3c, 0x00, 0x00, 0x00,
  0x03, 0x00, 0x00, 0x00, 0x01, 0x00, 0x00, 0x00, 0x0e, 0x00, 0x00, 0x00,
  0x63, 0x6f, 0x6e, 0x76, 0x32, 0x64, 0x5f, 0x37, 0x5f, 0x69, 0x6e, 0x70,
  0x75, 0x74, 0x00, 0x00, 0xfc, 0xff, 0xff, 0xff, 0x04, 0x00, 0x04, 0x00,
  0x04, 0x00, 0x00, 0x00
};

