float x_factor = 1;
float y_factor = 1;
unsigned char xyz_model[] __attribute__((aligned(4)))= {
 0x1c, 0x00, 0x00, 0x00, 0x54, 0x46, 0x4c, 0x33, 0x14, 0x00, 0x20, 0x00,
  0x04, 0x00, 0x08, 0x00, 0x0c, 0x00, 0x10, 0x00, 0x14, 0x00, 0x00, 0x00,
  0x18, 0x00, 0x1c, 0x00, 0x14, 0x00, 0x00, 0x00, 0x03, 0x00, 0x00, 0x00,
  0x18, 0x00, 0x00, 0x00, 0x2c, 0x00, 0x00, 0x00, 0xbc, 0x00, 0x00, 0x00,
  0x2c, 0x00, 0x00, 0x00, 0x64, 0x00, 0x00, 0x00, 0x5c, 0x00, 0x00, 0x00,
  0x05, 0x00, 0x00, 0x00, 0xc8, 0x0c, 0x00, 0x00, 0xe4, 0x0b, 0x00, 0x00,
  0xb4, 0x0a, 0x00, 0x00, 0x04, 0x02, 0x00, 0x00, 0x68, 0x01, 0x00, 0x00,
  0x01, 0x00, 0x00, 0x00, 0xb4, 0x00, 0x00, 0x00, 0x0d, 0x00, 0x00, 0x00,
  0x04, 0x0f, 0x00, 0x00, 0x00, 0x0f, 0x00, 0x00, 0xf4, 0x0d, 0x00, 0x00,
  0x70, 0x0d, 0x00, 0x00, 0xf4, 0x0e, 0x00, 0x00, 0xf0, 0x0e, 0x00, 0x00,
  0xe8, 0x0a, 0x00, 0x00, 0xe8, 0x0e, 0x00, 0x00, 0xc0, 0x02, 0x00, 0x00,
  0x48, 0x02, 0x00, 0x00, 0xdc, 0x0e, 0x00, 0x00, 0xd8, 0x0e, 0x00, 0x00,
  0x3c, 0x00, 0x00, 0x00, 0x00, 0x00, 0x00, 0x00, 0x01, 0x00, 0x00, 0x00,
  0x0c, 0x00, 0x00, 0x00, 0x08, 0x00, 0x0c, 0x00, 0x04, 0x00, 0x08, 0x00,
  0x08, 0x00, 0x00, 0x00, 0x08, 0x00, 0x00, 0x00, 0x0c, 0x00, 0x00, 0x00,
  0x13, 0x00, 0x00, 0x00, 0x6d, 0x69, 0x6e, 0x5f, 0x72, 0x75, 0x6e, 0x74,
  0x69, 0x6d, 0x65, 0x5f, 0x76, 0x65, 0x72, 0x73, 0x69, 0x6f, 0x6e, 0x00,
  0x76, 0xf2, 0xff, 0xff, 0x04, 0x00, 0x00, 0x00, 0x10, 0x00, 0x00, 0x00,
  0x31, 0x2e, 0x35, 0x2e, 0x30, 0x00, 0x00, 0x00, 0x00, 0x00, 0x00, 0x00,
  0x00, 0x00, 0x00, 0x00, 0x0f, 0x00, 0x00, 0x00, 0x4d, 0x4c, 0x49, 0x52,
  0x20, 0x43, 0x6f, 0x6e, 0x76, 0x65, 0x72, 0x74, 0x65, 0x64, 0x2e, 0x00,
  0x00, 0x00, 0x0e, 0x00, 0x18, 0x00, 0x04, 0x00, 0x08, 0x00, 0x0c, 0x00,
  0x10, 0x00, 0x14, 0x00, 0x0e, 0x00, 0x00, 0x00, 0x14, 0x00, 0x00, 0x00,
  0x40, 0x00, 0x00, 0x00, 0x44, 0x00, 0x00, 0x00, 0x48, 0x00, 0x00, 0x00,
  0x5c, 0x00, 0x00, 0x00, 0x0b, 0x00, 0x00, 0x00, 0xe0, 0x0d, 0x00, 0x00,
  0x7c, 0x0d, 0x00, 0x00, 0xc8, 0x0c, 0x00, 0x00, 0xe4, 0x0b, 0x00, 0x00,
  0x00, 0x0b, 0x00, 0x00, 0x48, 0x0a, 0x00, 0x00, 0xcc, 0x09, 0x00, 0x00,
  0x48, 0x09, 0x00, 0x00, 0xa0, 0x01, 0x00, 0x00, 0x14, 0x01, 0x00, 0x00,
  0x78, 0x00, 0x00, 0x00, 0x01, 0x00, 0x00, 0x00, 0x00, 0x00, 0x00, 0x00,
  0x01, 0x00, 0x00, 0x00, 0x0a, 0x00, 0x00, 0x00, 0x05, 0x00, 0x00, 0x00,
  0x4c, 0x0b, 0x00, 0x00, 0x6c, 0x0a, 0x00, 0x00, 0x68, 0x09, 0x00, 0x00,
  0xa8, 0x00, 0x00, 0x00, 0x10, 0x00, 0x00, 0x00, 0x04, 0x00, 0x00, 0x00,
  0x6d, 0x61, 0x69, 0x6e, 0x00, 0x00, 0x00, 0x00, 0x7a, 0xff, 0xff, 0xff,
  0x00, 0x00, 0x00, 0x09, 0x04, 0x00, 0x00, 0x00, 0x1c, 0x00, 0x00, 0x00,
  0x10, 0x00, 0x00, 0x00, 0x04, 0x00, 0x00, 0x00, 0x4a, 0xf3, 0xff, 0xff,
  0x00, 0x00, 0x80, 0x3f, 0x01, 0x00, 0x00, 0x00, 0x0a, 0x00, 0x00, 0x00,
  0x01, 0x00, 0x00, 0x00, 0x09, 0x00, 0x00, 0x00, 0xbc, 0xf4, 0xff, 0xff,
  0x19, 0x00, 0x00, 0x00, 0x00, 0x00, 0x00, 0x19, 0x01, 0x00, 0x00, 0x00,
  0xd4, 0xf2, 0xff, 0xff, 0x14, 0x00, 0x00, 0x00, 0x0b, 0x00, 0x00, 0x00,
  0x24, 0x00, 0x00, 0x00, 0x30, 0x00, 0x00, 0x00, 0x10, 0x00, 0x00, 0x00,
  0x02, 0x00, 0x00, 0x00, 0x01, 0x00, 0x00, 0x00, 0x04, 0x00, 0x00, 0x00,
  0x02, 0x00, 0x00, 0x00, 0xff, 0xff, 0xff, 0xff, 0x04, 0x00, 0x00, 0x00,
  0x08, 0x00, 0x00, 0x00, 0x49, 0x64, 0x65, 0x6e, 0x74, 0x69, 0x74, 0x79,
  0x00, 0x00, 0x00, 0x00, 0xbc, 0xf3, 0xff, 0xff, 0x00, 0x00, 0x0e, 0x00,
  0x18, 0x00, 0x08, 0x00, 0x0c, 0x00, 0x10, 0x00, 0x07, 0x00, 0x14, 0x00,
  0x0e, 0x00, 0x00, 0x00, 0x00, 0x00, 0x00, 0x08, 0x03, 0x00, 0x00, 0x00,
  0x18, 0x00, 0x00, 0x00, 0x0c, 0x00, 0x00, 0x00, 0x04, 0x00, 0x00, 0x00,
  0xd4, 0xf2, 0xff, 0xff, 0x01, 0x00, 0x00, 0x00, 0x09, 0x00, 0x00, 0x00,
  0x03, 0x00, 0x00, 0x00, 0x06, 0x00, 0x00, 0x00, 0x07, 0x00, 0x00, 0x00,
  0x08, 0x00, 0x00, 0x00, 0x54, 0xf5, 0xff, 0xff, 0x09, 0x00, 0x00, 0x00,
  0x00, 0x00, 0x00, 0x09, 0x01, 0x00, 0x00, 0x00, 0x6c, 0xf3, 0xff, 0xff,
  0x14, 0x00, 0x00, 0x00, 0x0a, 0x00, 0x00, 0x00, 0x24, 0x00, 0x00, 0x00,
  0x58, 0x00, 0x00, 0x00, 0x10, 0x00, 0x00, 0x00, 0x02, 0x00, 0x00, 0x00,
  0x01, 0x00, 0x00, 0x00, 0x04, 0x00, 0x00, 0x00, 0x02, 0x00, 0x00, 0x00,
  0xff, 0xff, 0xff, 0xff, 0x04, 0x00, 0x00, 0x00, 0x30, 0x00, 0x00, 0x00,
  0x73, 0x65, 0x71, 0x75, 0x65, 0x6e, 0x74, 0x69, 0x61, 0x6c, 0x2f, 0x64,
  0x65, 0x6e, 0x73, 0x65, 0x2f, 0x4d, 0x61, 0x74, 0x4d, 0x75, 0x6c, 0x3b,
  0x73, 0x65, 0x71, 0x75, 0x65, 0x6e, 0x74, 0x69, 0x61, 0x6c, 0x2f, 0x64,
  0x65, 0x6e, 0x73, 0x65, 0x2f, 0x42, 0x69, 0x61, 0x73, 0x41, 0x64, 0x64,
  0x00, 0x00, 0x00, 0x00, 0x68, 0xf3, 0xff, 0xff, 0x76, 0xf4, 0xff, 0xff,
  0x04, 0x00, 0x00, 0x00, 0x10, 0x00, 0x00, 0x00, 0xcd, 0x50, 0x19, 0xc0,
  0xb0, 0x5a, 0x00, 0xbf, 0x93, 0xc6, 0x91, 0xbf, 0xd7, 0x10, 0x52, 0x40,
  0x4e, 0xf4, 0xff, 0xff, 0x10, 0x00, 0x00, 0x00, 0x09, 0x00, 0x00, 0x00,
  0x10, 0x00, 0x00, 0x00, 0x44, 0x00, 0x00, 0x00, 0x01, 0x00, 0x00, 0x00,
  0x04, 0x00, 0x00, 0x00, 0x30, 0x00, 0x00, 0x00, 0x73, 0x65, 0x71, 0x75,
  0x65, 0x6e, 0x74, 0x69, 0x61, 0x6c, 0x2f, 0x64, 0x65, 0x6e, 0x73, 0x65,
  0x2f, 0x42, 0x69, 0x61, 0x73, 0x41, 0x64, 0x64, 0x2f, 0x52, 0x65, 0x61,
  0x64, 0x56, 0x61, 0x72, 0x69, 0x61, 0x62, 0x6c, 0x65, 0x4f, 0x70, 0x2f,
  0x72, 0x65, 0x73, 0x6f, 0x75, 0x72, 0x63, 0x65, 0x00, 0x00, 0x00, 0x00,
  0xdc, 0xf3, 0xff, 0xff, 0xea, 0xf4, 0xff, 0xff, 0x04, 0x00, 0x00, 0x00,
  0x40, 0x07, 0x00, 0x00, 0x4f, 0x6b, 0x37, 0x3f, 0x3c, 0x20, 0xb9, 0xbe,
  0xab, 0x1b, 0x0c, 0xbd, 0x1d, 0x88, 0x03, 0x3f, 0xc2, 0xdd, 0xd3, 0x3e,
  0xc1, 0x81, 0xec, 0xbe, 0xd8, 0xc0, 0xd6, 0x3c, 0x35, 0xe0, 0xce, 0x3e,
  0x41, 0xf7, 0xb6, 0x3e, 0xe2, 0x62, 0xb7, 0xbe, 0x11, 0x5f, 0x8b, 0x3e,
  0xc0, 0xd5, 0x04, 0x3f, 0x41, 0x30, 0x10, 0x3f, 0x43, 0x8d, 0x7a, 0xbd,
  0x51, 0x89, 0x11, 0x3e, 0xac, 0x87, 0xc4, 0x3e, 0x43, 0x80, 0x00, 0x3f,
  0x57, 0x87, 0x69, 0xbe, 0x67, 0x68, 0x9b, 0x3e, 0xe9, 0xc9, 0x0a, 0x3f,
  0x46, 0x51, 0x9c, 0x3e, 0x59, 0x72, 0x65, 0xbe, 0xb0, 0x1a, 0x08, 0x3e,
  0xef, 0xc0, 0x2b, 0x3f, 0xc0, 0x0b, 0xda, 0x3e, 0x0c, 0x10, 0x12, 0xbe,
  0xd0, 0xa2, 0xc3, 0x3e, 0x85, 0x72, 0x0f, 0x3f, 0xf2, 0xdd, 0xca, 0x3e,
  0x55, 0x8c, 0xe1, 0xbd, 0x5d, 0xcb, 0xb2, 0x3d, 0xba, 0xa6, 0xdb, 0x3e,
  0xf6, 0xc5, 0xc6, 0x3e, 0xaf, 0x39, 0xb2, 0xbe, 0x0b, 0x83, 0x8e, 0x3e,
  0xf1, 0xe9, 0xff, 0x3e, 0x52, 0xc7, 0x84, 0x3e, 0xf1, 0x19, 0x73, 0xbe,
  0x06, 0x61, 0xca, 0x3e, 0x98, 0xee, 0x17, 0x3f, 0xed, 0xc3, 0xf2, 0x3e,
  0xb8, 0xa2, 0x13, 0xbe, 0x46, 0x1b, 0x9b, 0x3e, 0x8d, 0x9a, 0x07, 0x3f,
  0x81, 0x1b, 0x2a, 0x3f, 0x30, 0x0b, 0x4b, 0xbe, 0x37, 0x25, 0x9f, 0x3e,
  0x8d, 0xd4, 0x92, 0x3e, 0x23, 0x5b, 0xf9, 0x3e, 0x0e, 0x33, 0x8d, 0xbe,
  0x18, 0xe2, 0xdc, 0x3d, 0x55, 0x0d, 0x28, 0x3f, 0x0d, 0x3f, 0xec, 0x3e,
  0x39, 0x0f, 0x16, 0xbf, 0xab, 0x85, 0xe4, 0x3e, 0xa5, 0xb5, 0xa1, 0x3e,
  0xcb, 0x47, 0x96, 0x3e, 0x75, 0x85, 0xa7, 0xbe, 0x86, 0x60, 0x1a, 0x3f,
  0x82, 0xff, 0x11, 0x3f, 0xc9, 0x46, 0x95, 0x3e, 0x03, 0x19, 0x9a, 0xbe,
  0x3f, 0x13, 0xa4, 0x3e, 0x45, 0x6f, 0x06, 0x3f, 0x3d, 0xbb, 0xba, 0x3e,
  0x89, 0x88, 0x8f, 0xbe, 0x9f, 0xbb, 0xa1, 0x3e, 0x45, 0x93, 0xf5, 0x3e,
  0x42, 0x72, 0x18, 0x3f, 0x96, 0x1d, 0xf4, 0xbe, 0xf2, 0xe0, 0xd0, 0x3e,
  0x03, 0x12, 0xce, 0x3e, 0x0b, 0xc1, 0xde, 0x3e, 0x75, 0x58, 0x56, 0xbe,
  0x36, 0x66, 0xc1, 0x3e, 0xa7, 0x1d, 0xb8, 0x3e, 0x29, 0xf1, 0xad, 0x3e,
  0xbc, 0x07, 0x8d, 0xbe, 0x1e, 0xc0, 0x23, 0x3f, 0xbf, 0xe1, 0x9b, 0x3e,
  0xfa, 0x8f, 0x31, 0x3e, 0xd9, 0xb8, 0x45, 0xbe, 0xf5, 0x9e, 0x1b, 0x3f,
  0xd4, 0x16, 0xfd, 0x3e, 0xc6, 0x0b, 0xf8, 0x3e, 0x0a, 0xe4, 0x37, 0xbe,
  0xf0, 0x11, 0x1c, 0x3f, 0x76, 0x98, 0x85, 0x3e, 0x51, 0xc5, 0x85, 0x3e,
  0xd0, 0x6f, 0xe9, 0xbd, 0xdb, 0x64, 0x0c, 0x3f, 0x86, 0x6f, 0xa7, 0x3e,
  0xbb, 0x3f, 0xb5, 0x3e, 0x54, 0xfd, 0xea, 0xbe, 0x9e, 0x3b, 0x3f, 0x3f,
  0x5c, 0x60, 0x0b, 0x3f, 0xf7, 0x76, 0x00, 0x3f, 0x1e, 0x01, 0x56, 0xbe,
  0x6c, 0x1b, 0x4e, 0x3f, 0x34, 0xff, 0x2f, 0x3e, 0xae, 0x26, 0xe2, 0x3e,
  0xa9, 0x3f, 0xc6, 0xbe, 0x57, 0xea, 0x26, 0x3f, 0xba, 0x20, 0xd8, 0x3e,
  0x45, 0x7d, 0xc3, 0x3e, 0x34, 0xa9, 0x5d, 0xbe, 0x07, 0x60, 0xdb, 0x3e,
  0xa1, 0xe7, 0x7b, 0x3e, 0x91, 0xf6, 0x8c, 0x3e, 0x4b, 0xce, 0x0c, 0xbe,
  0x38, 0x4d, 0xd5, 0x3e, 0x32, 0x89, 0xdc, 0x3e, 0x91, 0xff, 0xd7, 0x3e,
  0x31, 0x0b, 0x94, 0xbe, 0x3e, 0xb7, 0x59, 0x3f, 0x56, 0x79, 0xef, 0x3e,
  0xec, 0x90, 0xfb, 0x3c, 0x17, 0x7b, 0xb1, 0x3e, 0xeb, 0xb5, 0xcd, 0xbd,
  0x66, 0xa0, 0xcb, 0xbd, 0x99, 0xf2, 0x15, 0x3e, 0xff, 0x06, 0x03, 0x3e,
  0xba, 0x81, 0xb6, 0x3d, 0x0c, 0xbd, 0xbe, 0x3d, 0x44, 0x34, 0x53, 0xbd,
  0xdf, 0x79, 0x01, 0x3d, 0xa8, 0xe2, 0x3d, 0x3e, 0x58, 0x75, 0x1e, 0x3e,
  0x3a, 0xe8, 0x0e, 0xbe, 0xf1, 0xea, 0xc9, 0x3e, 0x62, 0xe7, 0x34, 0x3d,
  0x6b, 0xd5, 0x43, 0xbe, 0xd1, 0xc6, 0x0e, 0xbe, 0x98, 0xa6, 0xed, 0x3e,
  0x41, 0x2a, 0x05, 0x3b, 0xde, 0x80, 0x09, 0xbe, 0x40, 0x01, 0x91, 0xbe,
  0xdc, 0x07, 0x39, 0x3e, 0x53, 0x51, 0x7c, 0xbe, 0xd9, 0x0d, 0x0d, 0xbe,
  0x95, 0x71, 0xbb, 0xbd, 0x14, 0xd2, 0x15, 0x3e, 0xfe, 0xa9, 0x6d, 0xbe,
  0x93, 0x71, 0xc1, 0xbd, 0x49, 0x70, 0xf4, 0xbe, 0x1c, 0xe6, 0xb8, 0x3e,
  0x4f, 0xf0, 0x99, 0xbe, 0x90, 0x58, 0x1e, 0x3d, 0x2b, 0xf3, 0xca, 0xbe,
  0xbe, 0xbe, 0x17, 0x3e, 0x1f, 0x97, 0x13, 0xbe, 0xb6, 0x04, 0x15, 0x3d,
  0xff, 0xc9, 0x8a, 0xbe, 0xbb, 0xd4, 0xed, 0x3e, 0x2c, 0x7f, 0x78, 0xbe,
  0xf1, 0x39, 0x40, 0xbe, 0xc3, 0x0c, 0x63, 0x3c, 0x02, 0x81, 0xe6, 0x3e,
  0xd0, 0xa9, 0xf4, 0xbe, 0x9e, 0xb1, 0x6e, 0xbd, 0xe7, 0x3c, 0x64, 0x3b,
  0xc2, 0x80, 0xa3, 0x3e, 0x3f, 0x57, 0x8d, 0xbe, 0x70, 0x91, 0xe9, 0x3d,
  0xd4, 0x17, 0x8c, 0xbe, 0x77, 0x33, 0xf1, 0x3e, 0x00, 0x62, 0x13, 0xbf,
  0xbf, 0x39, 0x99, 0xbe, 0x5b, 0x92, 0xc3, 0xbe, 0x68, 0x9d, 0xb6, 0x3e,
  0xa8, 0x67, 0x45, 0xbf, 0x76, 0x43, 0x50, 0xbe, 0x91, 0xfc, 0x5a, 0xbe,
  0x5e, 0x8b, 0x84, 0x3e, 0x5d, 0x8d, 0x53, 0xbf, 0x4b, 0x4a, 0xe3, 0xbd,
  0xa9, 0x00, 0xa9, 0xbe, 0x67, 0xdf, 0xf6, 0x3e, 0x8a, 0xf8, 0x5d, 0xbf,
  0xff, 0x4f, 0xe3, 0xbd, 0x29, 0x46, 0xb2, 0xbd, 0x0c, 0x84, 0xab, 0x3e,
  0x49, 0x08, 0x7c, 0xbf, 0x6d, 0xde, 0x81, 0xbe, 0x55, 0x2c, 0xe5, 0xbd,
  0x0b, 0x21, 0x8e, 0x3e, 0xaf, 0x6a, 0x87, 0xbf, 0xba, 0x27, 0xd1, 0xbd,
  0x18, 0x24, 0xb3, 0xbd, 0x00, 0x64, 0xd9, 0x3e, 0xcd, 0xfa, 0x86, 0xbf,
  0x86, 0xaa, 0x75, 0xbc, 0xe5, 0xf6, 0x10, 0xbe, 0xfe, 0x66, 0xa4, 0x3e,
  0x3e, 0x65, 0xa3, 0xbf, 0x0f, 0x5e, 0x0a, 0x3c, 0xdd, 0xe6, 0x07, 0xbe,
  0x49, 0x2a, 0x85, 0x3e, 0x67, 0x05, 0xbd, 0xbf, 0x03, 0x61, 0x51, 0x3e,
  0x35, 0x42, 0x98, 0xbe, 0x92, 0x98, 0x01, 0x3f, 0x70, 0xb6, 0xaa, 0xbf,
  0x08, 0x88, 0x2f, 0xbe, 0xfa, 0x7a, 0xa3, 0xbe, 0x02, 0x49, 0xc6, 0x3e,
  0xa9, 0x3f, 0xb9, 0xbf, 0xce, 0xc4, 0x26, 0x3e, 0xcd, 0x1f, 0x30, 0xbe,
  0x72, 0xa5, 0xaf, 0x3e, 0x42, 0xe9, 0x96, 0xbf, 0xc8, 0xbb, 0x75, 0x3e,
  0x42, 0xd9, 0x6b, 0xbe, 0x14, 0x79, 0x53, 0x3e, 0x49, 0x20, 0xad, 0xbf,
  0x00, 0xfa, 0xf2, 0x3b, 0xf1, 0xf1, 0x0a, 0xbd, 0x12, 0x05, 0x93, 0x3e,
  0x6f, 0x7c, 0xe2, 0xbf, 0xf2, 0x00, 0x6c, 0xbd, 0xae, 0x7d, 0xfa, 0xbd,
  0xa4, 0x12, 0x37, 0x3e, 0x1c, 0x87, 0xc1, 0xbf, 0x42, 0x4d, 0xc9, 0xbd,
  0x3f, 0x4a, 0x5f, 0x3d, 0xfe, 0x40, 0x85, 0x3e, 0x60, 0x03, 0xc4, 0xbf,
  0x42, 0xe9, 0xa3, 0x3e, 0x78, 0x36, 0x86, 0x3d, 0xaa, 0x23, 0xd9, 0x3e,
  0x10, 0x1d, 0xd1, 0xbf, 0xae, 0xeb, 0x33, 0x3e, 0xdb, 0x09, 0x43, 0xbf,
  0xbf, 0xaf, 0x40, 0xbd, 0x09, 0x29, 0x1f, 0x3d, 0x3b, 0x20, 0xaa, 0xbf,
  0xb2, 0x8b, 0xf1, 0xbe, 0xe2, 0xbc, 0x04, 0x3e, 0xae, 0xb1, 0xd4, 0xbe,
  0x14, 0xf6, 0x5e, 0xbf, 0x1d, 0xfe, 0xf1, 0xbe, 0x17, 0x2f, 0x9b, 0x3d,
  0x3c, 0xb1, 0x87, 0x3d, 0x8c, 0x0c, 0x40, 0xbf, 0xf2, 0xd9, 0xae, 0xbe,
  0xbb, 0xc0, 0x78, 0xbd, 0x7e, 0xec, 0x19, 0x3c, 0x49, 0x7d, 0x6d, 0xbf,
  0xbd, 0xac, 0xa0, 0xbe, 0x2a, 0x43, 0x15, 0x3e, 0xc9, 0xce, 0xcb, 0x3d,
  0x2f, 0xe3, 0x36, 0xbf, 0x77, 0x64, 0xbc, 0xbe, 0x3c, 0x99, 0x3e, 0x3d,
  0xae, 0x5a, 0x54, 0xbe, 0xd0, 0x62, 0x69, 0xbf, 0x6c, 0xa4, 0x20, 0xbf,
  0x1e, 0x93, 0x1c, 0xbd, 0x56, 0xc0, 0x83, 0x3d, 0xc3, 0x73, 0x57, 0xbf,
  0xa6, 0xe0, 0xd0, 0xbe, 0x6e, 0x98, 0x23, 0x3e, 0xf0, 0x01, 0x90, 0x3e,
  0x3a, 0x3d, 0x3d, 0xbf, 0xf9, 0x77, 0x85, 0xbe, 0x6b, 0x81, 0x18, 0xbd,
  0xaf, 0xb1, 0x7d, 0x3e, 0x0f, 0xda, 0x62, 0xbf, 0x06, 0x08, 0xc9, 0xbe,
  0x79, 0x99, 0x97, 0x3e, 0xfc, 0xbb, 0x01, 0x3e, 0xd8, 0xbf, 0x4d, 0xbf,
  0xf1, 0xb9, 0x4e, 0xbe, 0x4d, 0x41, 0x86, 0xbd, 0xd8, 0xa6, 0x83, 0x3e,
  0x8b, 0x13, 0x37, 0xbf, 0xf5, 0xc2, 0x6c, 0xbe, 0xbf, 0x24, 0x91, 0x3e,
  0x70, 0xda, 0x35, 0x3e, 0x70, 0xc6, 0x24, 0xbf, 0x0f, 0xd1, 0xfa, 0xbe,
  0x12, 0x96, 0x40, 0x3d, 0x32, 0x8f, 0xba, 0x3e, 0x9f, 0x27, 0x09, 0xbf,
  0x84, 0xb0, 0xd5, 0xbe, 0x23, 0x11, 0x81, 0x3e, 0x1f, 0x32, 0x2c, 0x3f,
  0x5c, 0x06, 0x2d, 0xbf, 0x79, 0x65, 0x0b, 0xbf, 0xcc, 0x63, 0x34, 0x3e,
  0x99, 0x9b, 0x21, 0x3f, 0x6f, 0x9c, 0x4b, 0xbf, 0x99, 0xe1, 0xaf, 0xbe,
  0x54, 0x81, 0x5d, 0xbd, 0x7b, 0xf7, 0x34, 0x3f, 0x66, 0xba, 0x3b, 0xbf,
  0x80, 0x23, 0x0c, 0xbf, 0xec, 0xae, 0xb0, 0x3d, 0x2b, 0xa7, 0x8b, 0x3f,
  0x18, 0x78, 0x45, 0xbf, 0x72, 0x11, 0xec, 0xbe, 0x99, 0x7f, 0x75, 0x3d,
  0x46, 0x86, 0xa3, 0x3f, 0xfd, 0x03, 0x07, 0xbf, 0xfe, 0x45, 0x82, 0xbe,
  0x87, 0xed, 0xc9, 0x3c, 0xb0, 0xa8, 0xa7, 0x3f, 0xf9, 0xdf, 0x5c, 0xbf,
  0x69, 0xdb, 0x8c, 0xbe, 0xf2, 0xf4, 0x37, 0xbd, 0xe4, 0x7a, 0x86, 0x3f,
  0x11, 0x6a, 0x4b, 0xbf, 0xef, 0x2d, 0xc9, 0xbe, 0xed, 0x6e, 0x1a, 0x3e,
  0xf5, 0x55, 0x82, 0x3f, 0x48, 0x38, 0x47, 0xbf, 0x24, 0x63, 0x41, 0xbe,
  0x8c, 0x2f, 0x23, 0x3e, 0x03, 0xa2, 0x99, 0x3f, 0x92, 0x5f, 0x7c, 0xbf,
  0xf6, 0x2c, 0x9c, 0xbe, 0xb5, 0x89, 0x1d, 0x3e, 0x5b, 0xa5, 0xd5, 0x3f,
  0xbd, 0xbe, 0x58, 0xbf, 0x40, 0xd1, 0x17, 0xbf, 0x14, 0x09, 0x01, 0xbe,
  0x07, 0xfc, 0xa8, 0x3f, 0x14, 0xf8, 0x43, 0xbf, 0x8f, 0xdd, 0xd7, 0xbe,
  0xf7, 0x75, 0x83, 0x3d, 0x57, 0x83, 0x91, 0x3f, 0x3e, 0x8a, 0x3a, 0xbf,
  0x5e, 0xe1, 0xd7, 0xbe, 0xf0, 0xdb, 0x39, 0xbd, 0x72, 0x30, 0xb1, 0x3f,
  0x14, 0x5d, 0x61, 0xbf, 0x7c, 0xbd, 0xd9, 0xbe, 0xb8, 0x30, 0xe1, 0x3d,
  0xa4, 0x57, 0x9c, 0x3f, 0xee, 0x4a, 0x4a, 0xbf, 0x1e, 0x4a, 0x2a, 0xbe,
  0x0f, 0x33, 0x0e, 0x3e, 0xa8, 0xdb, 0xae, 0x3f, 0x96, 0x49, 0x50, 0xbf,
  0xd2, 0x86, 0x10, 0xbe, 0xca, 0x23, 0x41, 0x3e, 0xbe, 0xee, 0xaf, 0x3f,
  0xb0, 0x20, 0xa8, 0xbe, 0x07, 0x09, 0xf7, 0xbe, 0x21, 0xd7, 0xce, 0xbe,
  0xc1, 0x1a, 0x4d, 0xbf, 0x6e, 0x24, 0xb4, 0xbe, 0x9c, 0xe8, 0xf4, 0xbe,
  0x05, 0xeb, 0xd0, 0xbe, 0x02, 0x9e, 0xda, 0xbe, 0x63, 0x44, 0x16, 0xbe,
  0xa0, 0xdf, 0x27, 0xbe, 0x0c, 0xae, 0x18, 0xbe, 0x74, 0x41, 0x5a, 0xbe,
  0xef, 0x50, 0xf8, 0xbd, 0x82, 0x61, 0x9a, 0xbe, 0x26, 0xa5, 0x81, 0xbe,
  0xe3, 0x87, 0x0b, 0xbf, 0x62, 0x64, 0x79, 0xbe, 0x4a, 0x35, 0x85, 0xbe,
  0xd5, 0x15, 0xe6, 0xbc, 0x23, 0x5b, 0xe7, 0xbe, 0x28, 0x8a, 0x02, 0xbf,
  0xaf, 0xbb, 0xfc, 0xbe, 0x66, 0xb2, 0xb3, 0xbe, 0x5c, 0x8a, 0xe0, 0xbe,
  0xb9, 0x66, 0xdb, 0xbe, 0x6f, 0x56, 0xc9, 0xbe, 0xf5, 0x15, 0xbd, 0xbd,
  0x9f, 0x9d, 0x02, 0xbf, 0x06, 0xbf, 0xbd, 0xbe, 0x63, 0x44, 0x22, 0xbe,
  0xb9, 0x57, 0x6c, 0xbc, 0xaa, 0x30, 0xab, 0xbe, 0x18, 0x08, 0xc0, 0xbe,
  0x24, 0x5f, 0xc1, 0xbe, 0x23, 0x6f, 0x22, 0xbe, 0xaf, 0x5b, 0xf4, 0xbe,
  0x25, 0xf2, 0x1d, 0xbf, 0xb0, 0x3c, 0x02, 0xbf, 0x28, 0x0b, 0x01, 0xbe,
  0x80, 0x23, 0x34, 0xbf, 0x38, 0xee, 0xdb, 0xbe, 0x81, 0x7b, 0xde, 0xbe,
  0x55, 0xc3, 0xed, 0xbe, 0x95, 0x7d, 0x18, 0xbf, 0xae, 0xb4, 0xb3, 0xbe,
  0x1f, 0x1f, 0xdd, 0xbe, 0xee, 0x90, 0x01, 0xbf, 0x0a, 0x8e, 0x05, 0xbf,
  0xd3, 0x0e, 0x11, 0xbe, 0x74, 0xff, 0x7c, 0xbe, 0xa5, 0xdd, 0xe5, 0xbe,
  0xe1, 0x95, 0x27, 0xbf, 0xad, 0xe7, 0xf0, 0xbe, 0x47, 0x33, 0xb0, 0xbe,
  0x7a, 0x37, 0x99, 0xbe, 0x1f, 0xeb, 0x12, 0xbf, 0x01, 0x60, 0x7f, 0xbe,
  0x98, 0x1a, 0xc0, 0xbe, 0xa2, 0xb7, 0xce, 0xbe, 0x42, 0x0e, 0x48, 0xbf,
  0xfb, 0xf4, 0xee, 0xbd, 0x65, 0xcd, 0xec, 0xbe, 0xd5, 0x35, 0xba, 0xbe,
  0x8f, 0xa3, 0x5b, 0xbf, 0x7b, 0xac, 0xbc, 0xbe, 0xec, 0xb5, 0x8b, 0xbe,
  0xe7, 0xe3, 0xa3, 0xbe, 0x61, 0x36, 0x1a, 0xbf, 0xb3, 0x06, 0x01, 0xbf,
  0xfb, 0xe1, 0xd8, 0xbe, 0xd8, 0x38, 0xdc, 0xbc, 0xaf, 0x03, 0x28, 0xbf,
  0x4d, 0x11, 0x57, 0xbe, 0x57, 0xbf, 0xc7, 0xbe, 0x20, 0x33, 0xad, 0xbe,
  0x2b, 0x66, 0x20, 0xbf, 0x3c, 0x23, 0xc9, 0xbe, 0xc3, 0x4d, 0xd5, 0xbe,
  0x32, 0xd3, 0xee, 0xbd, 0x30, 0xab, 0xe5, 0xbe, 0x5a, 0x96, 0xb5, 0xbe,
  0x51, 0x3b, 0x7f, 0xbe, 0x7a, 0x97, 0x63, 0xbe, 0x3c, 0xc1, 0xeb, 0xbe,
  0x39, 0x10, 0x11, 0xbf, 0x8e, 0x00, 0x86, 0xbe, 0x16, 0x9b, 0x65, 0xbe,
  0xe6, 0xc2, 0xb0, 0xbe, 0xc6, 0x17, 0x50, 0xbe, 0x29, 0xa4, 0x95, 0xbe,
  0x22, 0x3a, 0x06, 0xbf, 0x0f, 0xdf, 0xeb, 0xbe, 0x4d, 0x42, 0x7c, 0xbe,
  0x1a, 0x84, 0x51, 0xbe, 0x53, 0xac, 0x57, 0xbe, 0x75, 0x2d, 0x1c, 0xbf,
  0xee, 0xcf, 0x17, 0xbf, 0xbc, 0x81, 0x06, 0xbf, 0x82, 0x16, 0xcb, 0xbe,
  0x95, 0x51, 0x38, 0xbf, 0x97, 0x88, 0x0b, 0xbf, 0xa3, 0x06, 0x8e, 0xbe,
  0xf7, 0x22, 0xd8, 0xbe, 0x4a, 0xe5, 0x41, 0xbd, 0x72, 0x5d, 0x3b, 0xbe,
  0x20, 0x18, 0xbe, 0xbe, 0x57, 0x91, 0xf0, 0xbe, 0x4d, 0x5e, 0x86, 0xbe,
  0xf8, 0xb5, 0x77, 0xbe, 0x7e, 0xb8, 0x2b, 0xbf, 0x5b, 0x7d, 0x54, 0xbf,
  0x82, 0x76, 0x22, 0xbe, 0xaa, 0xcd, 0xb8, 0xbe, 0xf4, 0x7e, 0x3d, 0xbf,
  0x02, 0x34, 0x22, 0xbf, 0xb2, 0x23, 0x2e, 0xbf, 0xf6, 0x09, 0x27, 0xbf,
  0xf2, 0xfb, 0xff, 0xff, 0x10, 0x00, 0x00, 0x00, 0x08, 0x00, 0x00, 0x00,
  0x14, 0x00, 0x00, 0x00, 0x2c, 0x00, 0x00, 0x00, 0x02, 0x00, 0x00, 0x00,
  0x04, 0x00, 0x00, 0x00, 0x74, 0x00, 0x00, 0x00, 0x17, 0x00, 0x00, 0x00,
  0x73, 0x65, 0x71, 0x75, 0x65, 0x6e, 0x74, 0x69, 0x61, 0x6c, 0x2f, 0x64,
  0x65, 0x6e, 0x73, 0x65, 0x2f, 0x4d, 0x61, 0x74, 0x4d, 0x75, 0x6c, 0x00,
  0x7c, 0xfc, 0xff, 0xff, 0x00, 0x00, 0x0a, 0x00, 0x10, 0x00, 0x04, 0x00,
  0x08, 0x00, 0x0c, 0x00, 0x0a, 0x00, 0x00, 0x00, 0x02, 0x00, 0x00, 0x00,
  0x10, 0x00, 0x00, 0x00, 0x04, 0x00, 0x00, 0x00, 0x01, 0x00, 0x00, 0x00,
  0x06, 0x00, 0x00, 0x00, 0x02, 0x00, 0x00, 0x00, 0x04, 0x00, 0x00, 0x00,
  0x05, 0x00, 0x00, 0x00, 0x00, 0xfe, 0xff, 0xff, 0x16, 0x00, 0x00, 0x00,
  0x00, 0x00, 0x00, 0x16, 0x01, 0x00, 0x00, 0x00, 0x18, 0xfc, 0xff, 0xff,
  0x14, 0x00, 0x00, 0x00, 0x07, 0x00, 0x00, 0x00, 0x24, 0x00, 0x00, 0x00,
  0x40, 0x00, 0x00, 0x00, 0x10, 0x00, 0x00, 0x00, 0x02, 0x00, 0x00, 0x00,
  0x01, 0x00, 0x00, 0x00, 0x74, 0x00, 0x00, 0x00, 0x02, 0x00, 0x00, 0x00,
  0xff, 0xff, 0xff, 0xff, 0x74, 0x00, 0x00, 0x00, 0x1a, 0x00, 0x00, 0x00,
  0x73, 0x65, 0x71, 0x75, 0x65, 0x6e, 0x74, 0x69, 0x61, 0x6c, 0x2f, 0x66,
  0x6c, 0x61, 0x74, 0x74, 0x65, 0x6e, 0x2f, 0x52, 0x65, 0x73, 0x68, 0x61,
  0x70, 0x65, 0x00, 0x00, 0xfc, 0xfb, 0xff, 0xff, 0x0a, 0xfd, 0xff, 0xff,
  0x04, 0x00, 0x00, 0x00, 0x08, 0x00, 0x00, 0x00, 0xff, 0xff, 0xff, 0xff,
  0x74, 0x00, 0x00, 0x00, 0x00, 0x00, 0x0e, 0x00, 0x18, 0x00, 0x08, 0x00,
  0x07, 0x00, 0x0c, 0x00, 0x10, 0x00, 0x14, 0x00, 0x0e, 0x00, 0x00, 0x00,
  0x00, 0x00, 0x00, 0x02, 0x10, 0x00, 0x00, 0x00, 0x06, 0x00, 0x00, 0x00,
  0x10, 0x00, 0x00, 0x00, 0x2c, 0x00, 0x00, 0x00, 0x01, 0x00, 0x00, 0x00,
  0x02, 0x00, 0x00, 0x00, 0x18, 0x00, 0x00, 0x00, 0x73, 0x65, 0x71, 0x75,
  0x65, 0x6e, 0x74, 0x69, 0x61, 0x6c, 0x2f, 0x66, 0x6c, 0x61, 0x74, 0x74,
  0x65, 0x6e, 0x2f, 0x43, 0x6f, 0x6e, 0x73, 0x74, 0x00, 0x00, 0x00, 0x00,
  0x78, 0xfd, 0xff, 0xff, 0x00, 0x00, 0x0e, 0x00, 0x1a, 0x00, 0x08, 0x00,
  0x0c, 0x00, 0x10, 0x00, 0x07, 0x00, 0x14, 0x00, 0x0e, 0x00, 0x00, 0x00,
  0x00, 0x00, 0x00, 0x05, 0x01, 0x00, 0x00, 0x00, 0x3c, 0x00, 0x00, 0x00,
  0x30, 0x00, 0x00, 0x00, 0x14, 0x00, 0x00, 0x00, 0x00, 0x00, 0x0e, 0x00,
  0x18, 0x00, 0x17, 0x00, 0x10, 0x00, 0x0c, 0x00, 0x08, 0x00, 0x04, 0x00,
  0x0e, 0x00, 0x00, 0x00, 0x02, 0x00, 0x00, 0x00, 0x02, 0x00, 0x00, 0x00,
  0x02, 0x00, 0x00, 0x00, 0x02, 0x00, 0x00, 0x00, 0x00, 0x00, 0x00, 0x01,
  0x01, 0x00, 0x00, 0x00, 0x04, 0x00, 0x00, 0x00, 0x01, 0x00, 0x00, 0x00,
  0x03, 0x00, 0x00, 0x00, 0x2c, 0xff, 0xff, 0xff, 0x11, 0x00, 0x00, 0x00,
  0x00, 0x00, 0x00, 0x11, 0x01, 0x00, 0x00, 0x00, 0x44, 0xfd, 0xff, 0xff,
  0x14, 0x00, 0x00, 0x00, 0x05, 0x00, 0x00, 0x00, 0x34, 0x00, 0x00, 0x00,
  0x58, 0x00, 0x00, 0x00, 0x18, 0x00, 0x00, 0x00, 0x04, 0x00, 0x00, 0x00,
  0x01, 0x00, 0x00, 0x00, 0x1d, 0x00, 0x00, 0x00, 0x01, 0x00, 0x00, 0x00,
  0x04, 0x00, 0x00, 0x00, 0x04, 0x00, 0x00, 0x00, 0xff, 0xff, 0xff, 0xff,
  0x1d, 0x00, 0x00, 0x00, 0x01, 0x00, 0x00, 0x00, 0x04, 0x00, 0x00, 0x00,
  0x20, 0x00, 0x00, 0x00, 0x73, 0x65, 0x71, 0x75, 0x65, 0x6e, 0x74, 0x69,
  0x61, 0x6c, 0x2f, 0x6d, 0x61, 0x78, 0x5f, 0x70, 0x6f, 0x6f, 0x6c, 0x69,
  0x6e, 0x67, 0x32, 0x64, 0x2f, 0x4d, 0x61, 0x78, 0x50, 0x6f, 0x6f, 0x6c,
  0x00, 0x00, 0x00, 0x00, 0x54, 0xfe, 0xff, 0xff, 0x00, 0x00, 0x0e, 0x00,
  0x14, 0x00, 0x00, 0x00, 0x08, 0x00, 0x0c, 0x00, 0x07, 0x00, 0x10, 0x00,
  0x0e, 0x00, 0x00, 0x00, 0x00, 0x00, 0x00, 0x01, 0x30, 0x00, 0x00, 0x00,
  0x24, 0x00, 0x00, 0x00, 0x10, 0x00, 0x00, 0x00, 0x0c, 0x00, 0x10, 0x00,
  0x0e, 0x00, 0x04, 0x00, 0x08, 0x00, 0x0f, 0x00, 0x0c, 0x00, 0x00, 0x00,
  0x01, 0x00, 0x00, 0x00, 0x01, 0x00, 0x00, 0x00, 0x00, 0x00, 0x01, 0x01,
  0x01, 0x00, 0x00, 0x00, 0x03, 0x00, 0x00, 0x00, 0x03, 0x00, 0x00, 0x00,
  0x00, 0x00, 0x00, 0x00, 0x01, 0x00, 0x00, 0x00, 0x02, 0x00, 0x00, 0x00,
  0x0c, 0x00, 0x10, 0x00, 0x0b, 0x00, 0x00, 0x00, 0x0c, 0x00, 0x04, 0x00,
  0x0c, 0x00, 0x00, 0x00, 0x03, 0x00, 0x00, 0x00, 0x00, 0x00, 0x00, 0x03,
  0x01, 0x00, 0x00, 0x00, 0x24, 0xfe, 0xff, 0xff, 0x14, 0x00, 0x00, 0x00,
  0x04, 0x00, 0x00, 0x00, 0x34, 0x00, 0x00, 0x00, 0xb0, 0x00, 0x00, 0x00,
  0x18, 0x00, 0x00, 0x00, 0x04, 0x00, 0x00, 0x00, 0x01, 0x00, 0x00, 0x00,
  0x3a, 0x00, 0x00, 0x00, 0x03, 0x00, 0x00, 0x00, 0x04, 0x00, 0x00, 0x00,
  0x04, 0x00, 0x00, 0x00, 0xff, 0xff, 0xff, 0xff, 0x3a, 0x00, 0x00, 0x00,
  0x03, 0x00, 0x00, 0x00, 0x04, 0x00, 0x00, 0x00, 0x7b, 0x00, 0x00, 0x00,
  0x73, 0x65, 0x71, 0x75, 0x65, 0x6e, 0x74, 0x69, 0x61, 0x6c, 0x2f, 0x63,
  0x6f, 0x6e, 0x76, 0x32, 0x64, 0x2f, 0x52, 0x65, 0x6c, 0x75, 0x3b, 0x73,
  0x65, 0x71, 0x75, 0x65, 0x6e, 0x74, 0x69, 0x61, 0x6c, 0x2f, 0x63, 0x6f,
  0x6e, 0x76, 0x32, 0x64, 0x2f, 0x42, 0x69, 0x61, 0x73, 0x41, 0x64, 0x64,
  0x3b, 0x73, 0x65, 0x71, 0x75, 0x65, 0x6e, 0x74, 0x69, 0x61, 0x6c, 0x2f,
  0x63, 0x6f, 0x6e, 0x76, 0x32, 0x64, 0x2f, 0x43, 0x6f, 0x6e, 0x76, 0x32,
  0x44, 0x3b, 0x73, 0x65, 0x71, 0x75, 0x65, 0x6e, 0x74, 0x69, 0x61, 0x6c,
  0x2f, 0x63, 0x6f, 0x6e, 0x76, 0x32, 0x64, 0x2f, 0x42, 0x69, 0x61, 0x73,
  0x41, 0x64, 0x64, 0x2f, 0x52, 0x65, 0x61, 0x64, 0x56, 0x61, 0x72, 0x69,
  0x61, 0x62, 0x6c, 0x65, 0x4f, 0x70, 0x2f, 0x72, 0x65, 0x73, 0x6f, 0x75,
  0x72, 0x63, 0x65, 0x00, 0x78, 0xfe, 0xff, 0xff, 0x86, 0xff, 0xff, 0xff,
  0x04, 0x00, 0x00, 0x00, 0x10, 0x00, 0x00, 0x00, 0xb2, 0x67, 0x43, 0xbf,
  0xbf, 0x3c, 0xab, 0xbb, 0x83, 0x9f, 0x2f, 0xbd, 0x8b, 0x06, 0x91, 0xbf,
  0x5e, 0xff, 0xff, 0xff, 0x10, 0x00, 0x00, 0x00, 0x03, 0x00, 0x00, 0x00,
  0x10, 0x00, 0x00, 0x00, 0x48, 0x00, 0x00, 0x00, 0x01, 0x00, 0x00, 0x00,
  0x04, 0x00, 0x00, 0x00, 0x31, 0x00, 0x00, 0x00, 0x73, 0x65, 0x71, 0x75,
  0x65, 0x6e, 0x74, 0x69, 0x61, 0x6c, 0x2f, 0x63, 0x6f, 0x6e, 0x76, 0x32,
  0x64, 0x2f, 0x42, 0x69, 0x61, 0x73, 0x41, 0x64, 0x64, 0x2f, 0x52, 0x65,
  0x61, 0x64, 0x56, 0x61, 0x72, 0x69, 0x61, 0x62, 0x6c, 0x65, 0x4f, 0x70,
  0x2f, 0x72, 0x65, 0x73, 0x6f, 0x75, 0x72, 0x63, 0x65, 0x00, 0x00, 0x00,
  0x04, 0x00, 0x06, 0x00, 0x04, 0x00, 0x00, 0x00, 0x00, 0x00, 0x06, 0x00,
  0x08, 0x00, 0x04, 0x00, 0x06, 0x00, 0x00, 0x00, 0x04, 0x00, 0x00, 0x00,
  0x30, 0x00, 0x00, 0x00, 0x6a, 0xe4, 0x01, 0xbf, 0xd6, 0x45, 0x65, 0xbf,
  0x69, 0x40, 0x8c, 0xbc, 0xeb, 0x75, 0x35, 0x3f, 0xde, 0xb8, 0x4f, 0x3f,
  0x27, 0x75, 0x5c, 0x3f, 0xe7, 0x46, 0xe3, 0x3f, 0xd2, 0x66, 0x42, 0xbf,
  0xad, 0xa9, 0x8c, 0xbf, 0x3f, 0x6e, 0xa1, 0xbf, 0x07, 0xb7, 0x4b, 0xbf,
  0xae, 0x01, 0x39, 0xbf, 0x00, 0x00, 0x0e, 0x00, 0x14, 0x00, 0x04, 0x00,
  0x00, 0x00, 0x08, 0x00, 0x0c, 0x00, 0x10, 0x00, 0x0e, 0x00, 0x00, 0x00,
  0x10, 0x00, 0x00, 0x00, 0x02, 0x00, 0x00, 0x00, 0x1c, 0x00, 0x00, 0x00,
  0x38, 0x00, 0x00, 0x00, 0x04, 0x00, 0x00, 0x00, 0x04, 0x00, 0x00, 0x00,
  0x03, 0x00, 0x00, 0x00, 0x01, 0x00, 0x00, 0x00, 0x01, 0x00, 0x00, 0x00,
  0x18, 0x00, 0x00, 0x00, 0x73, 0x65, 0x71, 0x75, 0x65, 0x6e, 0x74, 0x69,
  0x61, 0x6c, 0x2f, 0x63, 0x6f, 0x6e, 0x76, 0x32, 0x64, 0x2f, 0x43, 0x6f,
  0x6e, 0x76, 0x32, 0x44, 0x00, 0x00, 0x00, 0x00, 0x90, 0xff, 0xff, 0xff,
  0x14, 0x00, 0x18, 0x00, 0x04, 0x00, 0x00, 0x00, 0x08, 0x00, 0x0c, 0x00,
  0x10, 0x00, 0x00, 0x00, 0x00, 0x00, 0x14, 0x00, 0x14, 0x00, 0x00, 0x00,
  0x14, 0x00, 0x00, 0x00, 0x01, 0x00, 0x00, 0x00, 0x34, 0x00, 0x00, 0x00,
  0x44, 0x00, 0x00, 0x00, 0x18, 0x00, 0x00, 0x00, 0x04, 0x00, 0x00, 0x00,
  0x01, 0x00, 0x00, 0x00, 0x3c, 0x00, 0x00, 0x00, 0x03, 0x00, 0x00, 0x00,
  0x01, 0x00, 0x00, 0x00, 0x04, 0x00, 0x00, 0x00, 0xff, 0xff, 0xff, 0xff,
  0x3c, 0x00, 0x00, 0x00, 0x03, 0x00, 0x00, 0x00, 0x01, 0x00, 0x00, 0x00,
  0x0c, 0x00, 0x00, 0x00, 0x63, 0x6f, 0x6e, 0x76, 0x32, 0x64, 0x5f, 0x69,
  0x6e, 0x70, 0x75, 0x74, 0x00, 0x00, 0x00, 0x00, 0xfc, 0xff, 0xff, 0xff,
  0x04, 0x00, 0x04, 0x00, 0x04, 0x00, 0x00, 0x00
};

